{
  "</s>": 0,
  "<unk>": 1,
  "\u2581\u09cd": 2,
  ",": 3,
  ".": 4,
  "\u2581the": 5,
  "\u2581to": 6,
  "\u2581,": 7,
  "s": 8,
  "\u2581of": 9,
  "\u2581\u0964": 10,
  "\u2581and": 11,
  "\u0964": 12,
  ":": 13,
  "\u2581a": 14,
  "\u2581in": 15,
  "?": 16,
  "-": 17,
  "\u2581you": 18,
  ")": 19,
  "\u2581is": 20,
  "\u09c7\u09b0": 21,
  "'": 22,
  "\u2581\u0995\u09b0\u09be": 23,
  "\u2581.": 24,
  "\u2581\u09a8\u09be": 25,
  "\u2581that": 26,
  "\u2581(": 27,
  "\u2581-": 28,
  "\u2581for": 29,
  "\u2581\u0986\u09b0": 30,
  "\u09b0": 31,
  "\u2581\u0995\u09b0\u09c7": 32,
  "\u2581not": 33,
  "\u2581\u09af\u09c7": 34,
  "\u2581I": 35,
  "\u2581\u098f\u09ac\u0982": 36,
  "\u2581\u09b9\u09ac\u09c7": 37,
  "\u2581%": 38,
  "\u2581\u09a4\u09be\u09a6\u09c7\u09b0": 39,
  "!": 40,
  "\u2581be": 41,
  "\u2581": 42,
  "\u2581\u098f\u0987": 43,
  "\u2581\u201c": 44,
  "\u2581it": 45,
  "\u2581\u201d": 46,
  "\u2581will": 47,
  "\u2581\u0993": 48,
  "\u2581\u09a4\u09be\u09b0\u09be": 49,
  "\u2581(_": 50,
  "\u2581\u0986\u09ae\u09bf": 51,
  "\u2581\u099c\u09a8\u09cd\u09af": 52,
  "\u2581\u0995\u09b0\u09c1\u09a8": 53,
  "\u2581with": 54,
  "\u2581on": 55,
  "\u2581are": 56,
  "\u2581\u0995\u09b0\u09a4\u09c7": 57,
  "\u2581they": 58,
  "\u2581\u09a5\u09c7\u0995\u09c7": 59,
  "\u2581have": 60,
  "\u2581The": 61,
  "...": 62,
  "\u2581\u0995\u09bf": 63,
  "\u2581\u09aa": 64,
  "\u2581\"": 65,
  "\u2581_": 66,
  "\u2581from": 67,
  "\u2581them": 68,
  "\u2581who": 69,
  "\u2581this": 70,
  "\u2581\u09a4\u09be\u09b0": 71,
  "\u2581\u0986\u09b2": 72,
  "\u2581your": 73,
  "\u0995\u09c7": 74,
  "\u2581\u0986\u09ae\u09b0\u09be": 75,
  "\u2581was": 76,
  "\u2581as": 77,
  "\u2581their": 78,
  "t": 79,
  "\u2581we": 80,
  "\u2581\u0986\u09ae\u09be\u09b0": 81,
  "\u2581\u09a4\u09bf\u09a8\u09bf": 82,
  "\u2581\u09af": 83,
  "/": 84,
  "\u2581\u09a4\u09be": 85,
  "\u2581God": 86,
  "\u2581his": 87,
  "\u2581\u0986\u09ae\u09be\u09a6\u09c7\u09b0": 88,
  "\u2581he": 89,
  "\u2581We": 90,
  "\u2581by": 91,
  "\u2581\u09a4\u09cb\u09ae\u09be\u09a6\u09c7\u09b0": 92,
  "\u2019": 93,
  "\u2581\u098f\u0995\u099f\u09bf": 94,
  "\u2581\u09af\u09be": 95,
  "\u2581\u0995\u09b0\u09be\u09b0": 96,
  "\u2581or": 97,
  "\u2581\u2014": 98,
  "\u2581He": 99,
  "\u2581)": 100,
  "\u2581And": 101,
  "\u2581?": 102,
  "\u2581\u09b2\u09be\u09b9": 103,
  "_": 104,
  "\u2581do": 105,
  "ing": 106,
  "\u2581\u09b9\u09af\u09bc": 107,
  "\u2581\u09b8\u09c7": 108,
  "\u2581has": 109,
  "\u2581\u09b9\u09af\u09bc\u09c7\u099b\u09c7": 110,
  "\u2581Allah": 111,
  "\u2581;": 112,
  "\u2581all": 113,
  "\u2581--": 114,
  "\u2581\u09a4\u09cb\u09ae\u09b0\u09be": 115,
  "\u2581\u098f\u0995": 116,
  "\u2581what": 117,
  "\u2581\u099c\u09a8": 118,
  "\u2581\u09a4\u09c1\u09ae\u09bf": 119,
  "\u2581an": 120,
  "\"": 121,
  "\u0987": 122,
  "\u2581can": 123,
  "\u2581\u0995\u09cb\u09a8": 124,
  "\u2581him": 125,
  "\u2581You": 126,
  "\u2581\u0986\u09aa\u09a8\u09bf": 127,
  "\u2581when": 128,
  "\u2581\u09a8\u09af\u09bc": 129,
  "\u2581\u09a4": 130,
  "d": 131,
  "\u09c7": 132,
  "\u2581me": 133,
  "\u2581'": 134,
  "\u2581those": 135,
  "\u2581\u09ae\u09a7\u09cd\u09af\u09c7": 136,
  "\u2581[": 137,
  "\u2581!": 138,
  "\u2581Jehovah": 139,
  "\u2581\u0995\u09be\u099b\u09c7": 140,
  "\u2581\u09af\u09a6\u09bf": 141,
  "\u2581\u098f\u09b0": 142,
  "\u2581one": 143,
  "\u2581at": 144,
  "\u2581\u09b8\u09be\u09a5\u09c7": 145,
  "\u2581but": 146,
  "\u2581\u09af\u09be\u09b0\u09be": 147,
  "\u2581people": 148,
  "\u2581\u09b9\u099a\u09cd\u099b\u09c7": 149,
  "\u2581were": 150,
  "\u2581\u098f\u099f\u09be": 151,
  "\u2581\u09a4\u09cb\u09ae\u09be\u09b0": 152,
  "\u2581us": 153,
  "\u2581\u09af\u0996\u09a8": 154,
  "\u0993": 155,
  "\u2581:": 156,
  "\u2581\u2019": 157,
  ";": 158,
  "\u2581\u0995\u09cb\u09a8\u09cb": 159,
  "\u2581my": 160,
  "\u2581\u0995\u09b0\u09cb": 161,
  "\u2581\u0986\u09aa\u09a8\u09be\u09b0": 162,
  "\u2581\u09a4\u09be\u0981\u09b0": 163,
  "\u2581our": 164,
  "\u2581\u0986\u099b\u09c7": 165,
  "\u2581\u09b9\u09af\u09bc\u09c7": 166,
  "\u2581\u0995\u09bf\u099b\u09c1": 167,
  "\u2581What": 168,
  "\u2581if": 169,
  "\u2581\u099b\u09bf\u09b2": 170,
  "\u2581\u09b0\u09af\u09bc\u09c7\u099b\u09c7": 171,
  "\u2581''": 172,
  "\u2581no": 173,
  "\u2581which": 174,
  "\u2581\u09b8\u09ae\u09af\u09bc": 175,
  "\u2581\u0995\u09bf\u09a8\u09cd\u09a4\u09c1": 176,
  "\u2581so": 177,
  "\u2581It": 178,
  "\u2581about": 179,
  "\u2581\u09aa\u09cd\u09b0\u09a6\u09b0\u09cd\u09b6\u09a8": 180,
  "\u2581\u0995\u09b0": 181,
  "\u2581had": 182,
  "\u2581\u09b8": 183,
  "\u2581\u09a8\u09c7\u0987": 184,
  "\u2581A": 185,
  "\u2581This": 186,
  "\u2581been": 187,
  "\u2581\u09ab\u09be\u0987\u09b2": 188,
  "\u2581\u09a8\u09a4\u09c1\u09a8": 189,
  "\u2581there": 190,
  "\u2581Lord": 191,
  "\u2581said": 192,
  "\u2581\u0995\u09b0\u09c7\u09a8": 193,
  "\u2581\u09a8\u09be\u09ae": 194,
  "\u2581\u098f": 195,
  "\u2581would": 196,
  "\u2581\u09a8\u09bf\u09af\u09bc\u09c7": 197,
  "\u2581out": 198,
  "\u2581\u0995\u09c0": 199,
  "\u2581\u09b8\u09c7\u0987": 200,
  "\u2581\u09a4\u0996\u09a8": 201,
  "\u2581\u09ac\u09b2\u09c7": 202,
  "\u2581\u0985\u09a5\u09ac\u09be": 203,
  "\u2581\u0995\u09b0\u09ac\u09c7": 204,
  "\u2581\u098f\u0995\u099f\u09be": 205,
  "\u2581time": 206,
  "\u2581\u09ac\u09cd\u09af\u09b0\u09cd\u09a5": 207,
  "\u2581'%": 208,
  "m": 209,
  "\u2581\u09aa\u09be\u09b0\u09c7": 210,
  "\u2581may": 211,
  "\u2581\u09ac\u09cd\u09af\u09ac\u09b9\u09be\u09b0": 212,
  "\u2581\u09a4\u09cb": 213,
  "\u2581up": 214,
  "\u2581\u09ac": 215,
  "\u2581\u0995\u09a5\u09be": 216,
  "\u2581\u098f\u0995\u099c\u09a8": 217,
  "\u2581\u0995\u09b0\u09c7\u099b\u09c7": 218,
  "\u2581\u09ac\u09be\u09b0\u09cd\u09a4\u09be": 219,
  "ed": 220,
  "\u2581know": 221,
  "\u2581file": 222,
  "\u2581\u09a4\u09ac\u09c7": 223,
  "\u2581\u0995\u09b0\u09c7\u099b\u09c7\u09a8": 224,
  "\u2581\u09a4\u09be\u0995\u09c7": 225,
  "\u2581\u09b0": 226,
  "\u2581\u09aa\u09b0": 227,
  "\u2581In": 228,
  "\u2581\u2018": 229,
  "\u2581\u0995\u09be\u099c": 230,
  "\u2581then": 231,
  "\u2581\u0995": 232,
  "\u2581\u09af\u09be\u09af\u09bc": 233,
  "\u2581did": 234,
  "\u2581only": 235,
  "\u2581\u09ae\u09a8\u09c7": 236,
  "\u09a6\u09c7\u09b0": 237,
  "\u2581They": 238,
  "\u2581shall": 239,
  "\u2581like": 240,
  "\u2581should": 241,
  "\u2581If": 242,
  "\u09a4\u09c7": 243,
  "\u2581\u09a6\u09cd\u09ac\u09be\u09b0\u09be": 244,
  "\u2581\u0986\u09ae\u09be\u0995\u09c7": 245,
  "a": 246,
  "\u2581\u09a6\u09bf\u09af\u09bc\u09c7": 247,
  "\u2581But": 248,
  "\u2581good": 249,
  "\u2581some": 250,
  "\u2581more": 251,
  "\u2581folder": 252,
  "\u2581Jesus": 253,
  "re": 254,
  "\u09a8": 255,
  "\u2581her": 256,
  "]": 257,
  "\u2581message": 258,
  "\u2581\u09b8\u0999\u09cd\u0997\u09c7": 259,
  "\u2581No": 260,
  "\u2581\u09ac\u09be": 261,
  "\u2581\u0995\u09b0\u09bf": 262,
  "\u2581\u0985\u09a8": 263,
  "e": 264,
  "\u2581\u09a4\u09a5\u09cd\u09af": 265,
  "\u2581say": 266,
  "\u099f\u09bf": 267,
  "\u2581\u0995\u09c7": 268,
  "\u2581\u0985\u09a8\u09c7\u0995": 269,
  "\u2581\u09af\u09be\u09af\u09bc\u09a8\u09bf": 270,
  "\u2581\u09b9\u09b2\u09c7": 271,
  "\u2581\u09e7": 272,
  "\u2581other": 273,
  "\u2581new": 274,
  "\u2581\u09ae\u09a7": 275,
  "\u2581life": 276,
  "\u200c": 277,
  "\u2581\u09ab\u09cb\u09b2\u09cd\u09a1\u09be\u09b0": 278,
  "\u2581\"%": 279,
  "\u2581\u0989\u09aa\u09b0": 280,
  "\u2581\u09b8\u09ac": 281,
  "\u2581before": 282,
  "\u2581\u09aa\u09cd\u09b0\u09a4\u09bf": 283,
  "\u2581\u098f\u099f\u09bf": 284,
  "ly": 285,
  "\u2581could": 286,
  "\u2581than": 287,
  "S": 288,
  "\u2581How": 289,
  "\u2581\u09ae\u09c1\u099b\u09c7": 290,
  "\u2581name": 291,
  "\u2581\u0995\u09c7\u09a8": 292,
  "\u2581Bible": 293,
  "\u2581\u09b9\u09a4\u09c7": 294,
  "\u2581make": 295,
  "\u2581\u09b0\u09a4\u09bf": 296,
  "\u2581]": 297,
  "\u2581come": 298,
  "\u09b8": 299,
  "\u2581how": 300,
  "\u2581want": 301,
  "\u2581see": 302,
  "\u2581day": 303,
  "\u2581\u098f\u09ae\u09a8": 304,
  "\u2581\u200c": 305,
  "\u2581any": 306,
  "\u2581\u0995\u09c7\u0989": 307,
  "\u2581\u09ae\u09be\u09a8": 308,
  "\u2581into": 309,
  "\u2581\u098f\u0996\u09a8": 310,
  "\u2581Evolution": 311,
  "\u2581So": 312,
  "\u2581\u09a4\u09be\u0987": 313,
  "\u2581does": 314,
  "\u0964\u2019\u2019": 315,
  "\u2581way": 316,
  "\u2581over": 317,
  "\u2581earth": 318,
  "\u2581made": 319,
  "\u2581right": 320,
  "\u2581\u09aa\u09b0\u09bf\u09ac\u09b0\u09cd\u09a4\u09a8": 321,
  "\u2581Could": 322,
  "\u2581His": 323,
  "\u2581also": 324,
  "\u2581\u09b8\u09ae": 325,
  "\u2581\u09b2\u09be\u09b9\u09b0": 326,
  "\u2581get": 327,
  "\u2581\u09a6\u09bf\u09a8": 328,
  "\u2581\u09a4\u09bf": 329,
  "\u2581down": 330,
  "\u2581\u09a4\u09be\u09b9\u09b2\u09c7": 331,
  "\u09b0\u09be": 332,
  "\u2581\u09b9\u09af\u09bc\u09c7\u099b\u09bf\u09b2": 333,
  "\u2581\u09af\u09c7\u09a8": 334,
  "\u2581Do": 335,
  "\u2581\u09b8\u09ae\u09cd\u09ad\u09ac": 336,
  "\u2581\u09af\u09be\u09ac\u09c7": 337,
  "\u2581All": 338,
  "\u2581after": 339,
  "\u2581\u099f": 340,
  "\u09af\u09bc": 341,
  "\u2581\u09a4\u09be\u09a6\u09c7\u09b0\u0995\u09c7": 342,
  "\u2581\u099b\u09ac\u09bf": 343,
  "\u2581\u09b9\u09bf\u09b8\u09c7\u09ac\u09c7": 344,
  "\u2581help": 345,
  "\u2581\u09a8\u09bf\u09b6": 346,
  "\u2581\u09b9\u09b2": 347,
  "\u2581\u0988\u09b6\u09cd\u09ac\u09b0\u09c7\u09b0": 348,
  "\u2581go": 349,
  "\u2581many": 350,
  "\u2581here": 351,
  "\u2581\u09a4\u09c8\u09b0\u09bf": 352,
  "\u2581just": 353,
  "\u2581\u09a8\u09bf\u09b0\u09cd\u09ac\u09be\u099a\u09a8": 354,
  "\u2581That": 355,
  "\u2581its": 356,
  "\u2581man": 357,
  "\u2581such": 358,
  "\u2581\u09a0\u09bf\u0995": 359,
  "\u2581\u099a\u09bf\u09b9\u09cd\u09a8\u09bf\u09a4": 360,
  "\u2581\u0985\u09a8\u09c1\u09b8\u09a8\u09cd\u09a7\u09be\u09a8": 361,
  "\u2581\u09b8\u0982\u09b0\u0995\u09cd\u09b7\u09a3": 362,
  "\u2581\u09b8\u0982\u0995\u09cd\u09b0\u09be\u09a8\u09cd\u09a4": 363,
  "\u25811": 364,
  "\u2581now": 365,
  "\u2581When": 366,
  "\u2581\u09af\u09bf\u09b9\u09cb\u09ac\u09be\u09b0": 367,
  "\u2581\u0995\u09b0\u09c7\u099b\u09bf\u09b2": 368,
  "\u2581these": 369,
  "\u2581\u09a6": 370,
  "\u2581\u09ac\u09be\u09b8": 371,
  "\u2581used": 372,
  "\u2581\u0985\u09a4\u0983\u09aa\u09b0": 373,
  "\u098f\u09b0": 374,
  "\u2581\u0989\u09aa\u09b8\u09cd\u09a5\u09bf\u09a4": 375,
  "\u2581\u09b9\u09af\u09bc\u09a8\u09bf": 376,
  "\u2581world": 377,
  "\u2581O": 378,
  "\u2581\u09e8": 379,
  "\u2581\u09af\u09cb\u0997": 380,
  "\u2581take": 381,
  "\u2581\u09a4\u09cb\u09ae\u09be\u0995\u09c7": 382,
  "\u2581\u09a5\u09be\u0995\u09c7": 383,
  "\u2581\u098f\u0996\u09be\u09a8\u09c7": 384,
  "\u2581because": 385,
  "\u2581\u09ac\u09bf\u09b7\u09af\u09bc\u09c7": 386,
  "\u2581...": 387,
  "\u2581even": 388,
  "\u2581\u09a4\u09be\u09b2\u09bf\u0995\u09be": 389,
  "\u2581use": 390,
  "\u2581\u0989\u09aa\u09b0\u09c7": 391,
  "\u2581\u0995\u09b0\u09c7\u099b\u09bf\u09b2\u09c7\u09a8": 392,
  "\u2581things": 393,
  "\u2581\u099f\u09bf": 394,
  "\u2581\u09a8\u09bf\u09b0\u09cd\u09ac\u09be\u099a\u09bf\u09a4": 395,
  "\u2581she": 396,
  "\u099f\u09be": 397,
  "\u2581back": 398,
  "\u2581\u09aa\u09be\u0993\u09af\u09bc\u09be": 399,
  "\u2581list": 400,
  "\u2581upon": 401,
  "\u2581believe": 402,
  "\u2581two": 403,
  "\u2581#": 404,
  "\u2581\u09b8\u09be\u09b9\u09be\u09af\u09cd\u09af": 405,
  "\u2581\u0995\u09b0\u099b\u09c7": 406,
  "\u2581There": 407,
  "\u2581against": 408,
  "\u098f": 409,
  "\u2581Show": 410,
  "\u2581\u0997": 411,
  "\u2581\u09ac\u09a8\u09cd\u09a7": 412,
  "\u2581\u09ac\u09cd\u09af\u09ac\u09b9\u09c3\u09a4": 413,
  "\u2581\u0995\u09b0\u09c7\u099b\u09bf": 414,
  "ll": 415,
  "\u2581\u09a6\u09c7\u09b9": 416,
  "\u2581don": 417,
  "\u2581\u09a6\u09bf\u0995\u09c7": 418,
  "\u2581first": 419,
  "\u2581\u09aa\u09be\u09b0\u09bf": 420,
  "\u2581Cannot": 421,
  "A": 422,
  "\u2581need": 423,
  "\u2581\u09b8\u0995\u09cd\u09b0\u09bf\u09af\u09bc": 424,
  "\u2581\u099b\u09be\u09a1\u09bc\u09be": 425,
  "C": 426,
  "\u2581\u09a8\u09bf\u0983\u09b8\u09a8": 427,
  "\u2581sent": 428,
  "\u2581give": 429,
  "\u2581\u09af\u09be\u09b0": 430,
  "\u2581work": 431,
  "\u2581For": 432,
  "\u2581\u09a8\u09bf": 433,
  "\u2581\u09aa\u09be\u09b2\u09a8\u0995\u09b0": 434,
  "\u2581\u09ac\u09bf\u09b7\u09af\u09bc": 435,
  "\u2581\u0995\u09c0\u09ad\u09be\u09ac\u09c7": 436,
  "\u2581find": 437,
  "y": 438,
  "\u2581\u09b8\u09ae\u09b8\u09cd\u09a4": 439,
  "\u2581\u09aa\u09b0\u09c7": 440,
  "\u2581set": 441,
  "\u2581while": 442,
  "\u2581love": 443,
  "\u2581\u09a4\u09c1": 444,
  "\u2581\u0995\u09b0\u09ac\u09c7\u09a8": 445,
  "\u2581\u0995\u09be\u09b0\u09a3": 446,
  "\u2581As": 447,
  "\u2581\u09a4\u09cd\u09b0\u09c1\u099f\u09bf": 448,
  "\u2581\u09b6\u09c1\u09b0\u09c1": 449,
  "\u2581Our": 450,
  "\u2581Why": 451,
  "\u2581\u09b8\u09ae\u09cd\u09ac\u09a8\u09cd\u09a7\u09c7": 452,
  "\u2581\u09a8\u09bf\u09b0": 453,
  "\u2581among": 454,
  "\u2581selected": 455,
  "\u2581away": 456,
  "%": 457,
  "\u2581@": 458,
  "\u2581Him": 459,
  "\u2581\u09b6\u09c7\u09b7": 460,
  "\u2581whom": 461,
  "\u2581\u09b8\u09ae\u09b8\u09cd\u09af\u09be": 462,
  "\u2581open": 463,
  "\u2581\u09aa\u09be\u09b0\u09c7\u09a8": 464,
  "\u2581Then": 465,
  "\u2581\u09af\u09be\u09a4\u09c7": 466,
  "er": 467,
  "\u2581must": 468,
  "\u2581server": 469,
  "\u2581To": 470,
  "\u2581true": 471,
  "\u2581Please": 472,
  "\u2581window": 473,
  "M": 474,
  "\u2581years": 475,
  "\u2581My": 476,
  "\u2581\u09a6\u09c7\u0993\u09af\u09bc\u09be": 477,
  "\u2581being": 478,
  "\u2581/": 479,
  "\u2581\u09ac\u09bf\u09b6": 480,
  "\u2581\u09e9": 481,
  "\u2581\u0987": 482,
  "n": 483,
  "\u2581\u0986\u0997\u09c7": 484,
  "\u201d": 485,
  "\u2581\u09a6\u09c7\u0996\u09be": 486,
  "\u2581men": 487,
  "\u2581\u0995\u09bf\u09a8": 488,
  "\u2581&": 489,
  "\u2581\u09aa\u09c1\u09a8\u09b0\u09be\u09af\u09bc": 490,
  "\u2581\u0995\u09cd\u09b7\u09c7\u09a4\u09cd\u09b0\u09c7": 491,
  "\u2581another": 492,
  "\u2581\u09b0\u09a4": 493,
  "\u2581\u09a7": 494,
  "\u2581\u09a6\u09c7\u09af\u09bc": 495,
  "\u2581where": 496,
  "I": 497,
  "\u2581\u09ac\u09b0\u09cd\u09a4\u09ae\u09be\u09a8": 498,
  "\u2581page": 499,
  "\u09ad\u09be\u09ac\u09c7": 500,
  "\u2581\u09a6\u09bf\u09a4\u09c7": 501,
  "\u2581\u09a4\u09be\u09b0\u09aa\u09b0": 502,
  "\u2581\u09a8": 503,
  "\u2581\u09ab\u09b2\u09c7": 504,
  "o": 505,
  "\u2581\u09af\u09bf\u09b9\u09cb\u09ac\u09be": 506,
  "\u2581most": 507,
  "\u2581\u09ac\u099b\u09b0": 508,
  "\u2581\u09aa\u09b0\u09c0\u0995\u09cd\u09b7\u09be": 509,
  "D": 510,
  "\u09bf": 511,
  "\u2581\u09aa\u09be\u09b8\u0993\u09af\u09bc\u09be\u09b0\u09cd\u09a1": 512,
  "\u2581\u09aa\u09b0\u09bf\u099a\u09bf\u09a4\u09bf": 513,
  "\u2581\u0986\u09b0\u0993": 514,
  "\u2581\u09ad\u09af\u09bc": 515,
  "\u2581\u09a8\u09bf\u09b0\u09cd\u09a7\u09be\u09b0\u09a3": 516,
  "\u2581\u0986\u09b0\u09ae\u09cd\u09ad": 517,
  "\u2581Day": 518,
  "\u2581\u09ae\u09be\u09a7\u09cd\u09af\u09ae\u09c7": 519,
  "\u2581\u09a6\u09be\u0993": 520,
  "\u2581own": 521,
  "\u2581ye": 522,
  "\u2581\u09ae\u09a4\u09cb": 523,
  "\u2581\u09b8\u0982\u09af\u09cb\u0997": 524,
  "\u2581Error": 525,
  "\u2581\u09b8\u09a8": 526,
  "\u2581\u09a6\u09c7\u0996\u09a4\u09c7": 527,
  "\u2581\u09ac\u09a8": 528,
  "\u2581found": 529,
  "\u2581well": 530,
  "\u0995": 531,
  "\u2581\u099a\u09be\u09a8": 532,
  "\u2581\u09b8\u0995\u09b2": 533,
  "\u2581others": 534,
  "\u2581\u0985\u09a8\u09cd\u09af": 535,
  "\u2581files": 536,
  "\u2581\u09af\u09be\u099a\u09cd\u099b\u09c7": 537,
  "\u2581\u0997\u09c7\u099b\u09c7": 538,
  "\u2581\u09b8\u0982\u0996\u09cd\u09af\u09be": 539,
  "\u2581\u09ac\u09c7\u09b6\u09bf": 540,
  "E": 541,
  "\u2581\u09ac\u09a1\u09bc": 542,
  "\u2581truth": 543,
  "\u09b0\u09c2\u09aa\u09c7": 544,
  "):": 545,
  "\u09be": 546,
  "\u2581\u09ad\u09be\u09b2": 547,
  "\u2581\u09b8\u09a4": 548,
  "\u2581\u09b9\u09c7": 549,
  "\u2581\u0985\u09ac\u09b8\u09cd\u09a5\u09be\u09a8": 550,
  "\u2581\u09a5\u09be\u0995\u09ac\u09c7": 551,
  "\u2581show": 552,
  "\u2581between": 553,
  "\u2581am": 554,
  "ve": 555,
  "i": 556,
  "\u2581\u09af\u09c7\u09a4\u09c7": 557,
  "\u2581cannot": 558,
  "\u2581never": 559,
  "\u2581messages": 560,
  "\u2581\u0985\u09a4\u098f\u09ac": 561,
  "\u2581error": 562,
  "\u2581\u0986\u09b2\u09cd\u09b2\u09be\u09b9\u09cd": 563,
  "\u2581\u09ae\u09a4": 564,
  "\u2581\u0985\u0982\u09b6": 565,
  "\u2581Can": 566,
  "in": 567,
  "\u0997\u09c1\u09b2\u09cb": 568,
  "\u2581\u0985\u09a8\u09c1\u0997\u09cd\u09b0\u09b9": 569,
  "\u2581given": 570,
  "R": 571,
  "\u2581\u09a0\u09bf\u0995\u09be\u09a8\u09be": 572,
  "\u2581let": 573,
  "\u2581\u09ae\u09c7\u0987\u09b2": 574,
  "\u2581\u0989\u099a\u09bf\u09a4": 575,
  "\u2581image": 576,
  "\u2581think": 577,
  "\u2581through": 578,
  "\u2581\u09b8\u09c3\u09b7": 579,
  "\u2581nor": 580,
  "\u2581\u09b8\u09c7\u0996\u09be\u09a8\u09c7": 581,
  "\u2581S": 582,
  "\u2581\u0996\u09c1\u09ac": 583,
  "\u2581\u09ab\u09bf\u09b0\u09c7": 584,
  "\u2581Who": 585,
  "\u2581information": 586,
  "\u2581\u09ac\u09b2\u09be": 587,
  "\u2581\u09af\u09be\u09a6\u09c7\u09b0": 588,
  "F": 589,
  "\u2581\u09b6\u09c1\u09a7\u09c1\u09ae\u09be\u09a4\u09cd\u09b0": 590,
  "\u2581\u09a7\u09b0\u09a8\u09c7\u09b0": 591,
  "\u2581\u0986\u09aa\u09a8\u09be\u0995\u09c7": 592,
  "\u2581\u09ac\u09bf\u09b6\u09cd\u09ac\u09be\u09b8": 593,
  "\u2581\u09ac\u09cd\u09af\u09ac\u09b8\u09cd\u09a5\u09be": 594,
  "\u2581too": 595,
  "\u2581\u0995\u09be\u09b0\u09a3\u09c7": 596,
  "\u2581Whether": 597,
  "\u2581\u09aa\u09a5": 598,
  "\u2581New": 599,
  "\u2581children": 600,
  "\u2581key": 601,
  "\u2581\u09b9\u0993\u09af\u09bc\u09be\u09b0": 602,
  "\u2581indeed": 603,
  "\u2581\u099a\u09c7\u09b7\u09cd\u099f\u09be": 604,
  "\u2581\u099c": 605,
  "\u2581every": 606,
  "\u2581\u09ea": 607,
  "\u2581\u09ae\u09be\u09a8\u09c1\u09b7": 608,
  "\u2581\u09eb": 609,
  "\u2581\u09ac\u09c7\u09b0": 610,
  "\u2581\u09aa\u09c2\u09b0": 611,
  "\u2581\u0995\u09be\u099b": 612,
  "\u2581\u099a\u09b2\u09c7": 613,
  "\u2581\u09b6\u09be\u09b8": 614,
  "\u2581very": 615,
  "\u2581create": 616,
  "P": 617,
  "\u2581\u09a6\u09be\u09a8": 618,
  "\u2581\u09af\u09bf\u09a8\u09bf": 619,
  "\u2581\u09ac\u09b0\u09cd\u09a4\u09ae\u09be\u09a8\u09c7": 620,
  "\u2581\u09b6\u09c1\u09a7\u09c1": 621,
  "\u25812": 622,
  "\u2581place": 623,
  "\u2581part": 624,
  "\u2581faith": 625,
  "\u2581\u09a8\u09bf\u099c\u09c7\u09b0": 626,
  "\u2581\u09a7\u09b0\u09c7": 627,
  "\u2581\u09a8\u09bf\u099c\u09c7\u09a6\u09c7\u09b0": 628,
  "\u2581\u0989\u09b2\u09cd\u09b2\u09c7\u0996": 629,
  "\u2581might": 630,
  "\u2581\u09aa\u09cd\u09b0\u09be\u09aa\u09cd\u09a4": 631,
  "\u2581\u09aa\u09cd\u09b0\u09a5\u09ae": 632,
  "\u2581mail": 633,
  "\u2581\u09aa\u09cd\u09b0\u09c7\u09b0\u09a3": 634,
  "\u2581again": 635,
  "\u2581(%": 636,
  "\u2581came": 637,
  "\u2581\u09ab\u09c7\u09b2\u09be": 638,
  "\u2581\u09af\u09be\u0993": 639,
  "\u2581fear": 640,
  "\u2581much": 641,
  "\u2581\u09b2\u09cb\u09a1": 642,
  "\u2581read": 643,
  "\u2581\u09aa\u09cd\u09b0\u09a6\u09be\u09a8": 644,
  "\u2581\u09a6\u09c7\u09af\u09bc\u09be": 645,
  "\u2581\u09ac\u09b2\u09a4\u09c7": 646,
  "\u2581Failed": 647,
  "\u2581says": 648,
  "r": 649,
  "\u09bf\u09a4": 650,
  "\u2581family": 651,
  "\u2581\u09b2\u09cb\u0995": 652,
  "\u2581\u09aa\u09be\u09b0\u09ac\u09c7": 653,
  "\u2581\u0993\u09aa\u09b0": 654,
  "\u2581current": 655,
  "\u2581\u09ac\u09be\u0987\u09ac\u09c7\u09b2": 656,
  "\u2581\u09ac\u09c8\u09b6\u09bf\u09b7\u09cd\u099f\u09cd\u09af": 657,
  "\u2581unto": 658,
  "\u09a8\u09be": 659,
  "\u2581going": 660,
  "\u2581got": 661,
  "\u2581On": 662,
  "\u2581One": 663,
  "\u2581\u09ac\u09be\u09b0\u09cd\u09a4\u09be\u09b0": 664,
  "\u2581Your": 665,
  "\u2581death": 666,
  "\u2581\u0995\u09bf\u09a8\u09be": 667,
  "\u2581\u09ad\u09be\u09b2\u09cb": 668,
  "\u2581each": 669,
  "\u2581become": 670,
  "\u2581\u099a\u09af\u09bc": 671,
  "\u09cd": 672,
  "\u0987\u09a8": 673,
  "\u2581\u09a8\u09bf\u09b0\u09cd\u09ae\u09be\u09a3": 674,
  "th": 675,
  "\u2581sure": 676,
  "\u2581surely": 677,
  "\u2581text": 678,
  "\u2581\u09ac\u09be\u09a4\u09bf\u09b2": 679,
  "\u2581\u09b8\u09be\u09b0\u09cd\u09ad\u09be\u09b0": 680,
  "\u2581\u0988\u09ae\u09be\u09a8": 681,
  "\u2581account": 682,
  "\u2581\u0997\u09cd\u09b0\u09b9\u09a3": 683,
  "\u2581number": 684,
  "\u2581\u09ae": 685,
  "\u2581Select": 686,
  "Name": 687,
  "\u2581\u0995\u09b0\u09ac": 688,
  "\u2581\u09ac\u09b8": 689,
  "\u2581already": 690,
  "\u2581created": 691,
  "\u2581\u09b8\u09b0": 692,
  "\u2581\u09b7": 693,
  "\u2581\u099c\u09c0\u09ac\u09a8": 694,
  "\u2581without": 695,
  "\u2581\u09aa\u09cd\u09b0\u0995\u09be\u09b6": 696,
  "\u2581\u09b2\u09c7\u0996\u09be": 697,
  "\u2581\u0988\u09b6\u09cd\u09ac\u09b0": 698,
  "\u2581\u09a1\u09bf\u09ab\u09b2\u09cd\u099f": 699,
  "\u2581\u099b\u09bf\u09b2\u09c7\u09a8": 700,
  "\u2581\u098f\u09a4\u09c7": 701,
  "the": 702,
  "\u2581Say": 703,
  "\u2581\u0985\u09ac\u09b6": 704,
  "T": 705,
  "\u2581great": 706,
  "\u2581\u09ec": 707,
  "\u2581\u09a3": 708,
  "\u2581Paul": 709,
  "\u2581\u09ac\u09b2\u09cb": 710,
  "\u2581type": 711,
  "\u2581bring": 712,
  "\u2581call": 713,
  "\u2581last": 714,
  "\u2581Are": 715,
  "\u2581\u09b0\u0982": 716,
  "\u2581\u09a6\u09c7\u09b6": 717,
  "\u2581left": 718,
  "\u2581\u0985\u09a8\u09c1\u09af\u09be\u09af\u09bc\u09c0": 719,
  "\u2581\u09ac\u09b2\u09c7\u099b\u09bf\u09b2\u09c7\u09a8": 720,
  "\u2581\u09af\u09c7\u09ae\u09a8": 721,
  "\u2581Yes": 722,
  "\u2581\u09b9\u099a": 723,
  "\u2581Is": 724,
  "\u2581C": 725,
  "\u2581\u0996\u09c7\u09b2\u09be": 726,
  "\u2581\u09b8\u09a0\u09bf\u0995": 727,
  "\u2581\u0985\u09cd\u09af\u09be\u0995\u09be\u0989\u09a8\u09cd\u099f": 728,
  "\u2581command": 729,
  "p": 730,
  "\u2581\u09ac\u09bf\u09ad\u09bf\u09a8\u09cd\u09a8": 731,
  "BAR": 732,
  "\u2581system": 733,
  "\u2581same": 734,
  "\u2581\u099b\u09c7": 735,
  "\u2581\u09b9\u09af\u09bc\u09a4\u09cb": 736,
  "\u2581\u09b9\u0993\u09af\u09bc\u09be": 737,
  "\u2581\u09ac\u09bf\u09b6\u09c7\u09b7": 738,
  "\u0983": 739,
  "\u2581\u09ac\u09b0": 740,
  "\u2581end": 741,
  "\u2581\u09ae\u09a8": 742,
  "\u2581\u0989\u09a4\u09cd\u09a4\u09b0": 743,
  "\u2581\u09e7\u09e6": 744,
  "\u2581still": 745,
  "\u2581themselves": 746,
  "\u2581\u09aa\u09cd\u09b0\u09af\u09bc\u09cb\u099c\u09a8": 747,
  "\u2581\u09a7\u09c7": 748,
  "\u2581evil": 749,
  "B": 750,
  "\u2581\u09b9\u09cd\u09af\u09be\u0981": 751,
  "\u2581\u09ac\u09b2\u09b2\u09c7\u09a8": 752,
  "\u2581ask": 753,
  "\u2581save": 754,
  "c": 755,
  "\u2581She": 756,
  "\u2581\u09ad\u09bf\u09a1\u09bf\u0993": 757,
  "\u2581off": 758,
  "\u2581long": 759,
  "\u2581home": 760,
  "\u2581ones": 761,
  "\u2581\u0986\u09ac\u09b6\u09cd\u09af\u0995": 762,
  "\u2581Book": 763,
  "\u2581why": 764,
  "\u2581user": 765,
  "\u2581put": 766,
  "\u2581Open": 767,
  "\u2581keep": 768,
  "\u2581\u09a4\u09be\u0981\u0995\u09c7": 769,
  "\u2581\u09af\u09bf\u09b6\u09c1": 770,
  "\u2581\u09aa\u09b0\u09cd\u09af\u09a8\u09cd\u09a4": 771,
  "\u2581heavens": 772,
  "\u2581\u09a4\u09be\u09a4\u09c7": 773,
  "\u2581%2$": 774,
  "\u2581display": 775,
  "\u2581hearts": 776,
  "\u2581\u09b8\u09c7\u099f\u09be": 777,
  "N": 778,
  "\u2581Not": 779,
  "\u2581\u09ab\u09be\u0987\u09b2\u09c7\u09b0": 780,
  "\u2581example": 781,
  "\u2581\u09a6\u09c7\u09a8": 782,
  "\u2581\u2013": 783,
  "\u2581women": 784,
  "\u2581address": 785,
  "\u2581\u09ab\u09be\u0981\u0995\u09be": 786,
  "\u2581Christian": 787,
  "\u2581\u09a1\u09bf\u09b8\u09cd\u0995": 788,
  "\u2581something": 789,
  "\u2581data": 790,
  "\u2581Let": 791,
  "\u2581\u09b6": 792,
  "\u2581news": 793,
  "\u2581turn": 794,
  "\u2581\u09b6\u09ac\u09cd\u09a6": 795,
  "\u2581\u098f\u0995\u0987": 796,
  "\u2581\u09b8\u09c1\u09a4\u09b0\u09be\u0982": 797,
  "\u2581\u099a\u09be\u0987": 798,
  "l": 799,
  "\u2581password": 800,
  "\u2581Move": 801,
  "\u2581book": 802,
  "\u2581words": 803,
  "\u09ae": 804,
  "\u2581Name": 805,
  "\u2581heart": 806,
  "\u0995\u09be\u09b0\u09c0": 807,
  "\u2581\u0985\u09a8\u09cd\u09af\u09be\u09a8\u09cd\u09af": 808,
  "\u2581\u09b7\u09be": 809,
  "\u2581game": 810,
  "\u2581\u0986\u09ac\u09be\u09b0": 811,
  "\u2581until": 812,
  "\u2581\u0989\u0987\u09a8\u09cd\u09a1\u09cb\u09b0": 813,
  "\u2581\u201c%": 814,
  "\u2581power": 815,
  "\u2581\u09e7\u09eb": 816,
  "\u2581\u09ac\u09c7": 817,
  "\u2581\u099c\u09be\u09a8\u09bf": 818,
  "\u2581\u09a5": 819,
  "\u2581Christians": 820,
  "\u2581better": 821,
  "\u2581view": 822,
  "\u2581under": 823,
  "\u2581\u09ae\u09bf\u09a5": 824,
  "\u2581worship": 825,
  "\u2581\u0995\u09b0\u09c7\u099b\u09bf\u09b2\u09be\u09ae": 826,
  "\u2581\u09ab\u09c7\u09b2\u09c1\u09a8": 827,
  "\u2581\u099a\u09bf\u09a4\u09cd\u09b0": 828,
  "\u2581Witnesses": 829,
  "O": 830,
  "\u2581knowledge": 831,
  "\u2581\u09af\u09be\u0995\u09c7": 832,
  "\u2581\u09ae\u09be\u09a8\u09c1\u09b7\u09c7\u09b0": 833,
  "\u2581failed": 834,
  "\u2581\u09ac\u09bf\u09a8\u09cd\u09af\u09be\u09b8": 835,
  "\u2581\u0995\u09b0\u09a4": 836,
  "\u2581wrong": 837,
  "\u2581days": 838,
  "\u2581\u09aa\u09c3\u09b7\u09cd\u09a0\u09be\u09b0": 839,
  "\u2581\u09b8\u09be\u09ae\u09a8\u09c7": 840,
  "\u2581\u0995\u09b0\u099b\u09bf": 841,
  "\u2581\u09b8\u09be\u09b0\u09cd\u099f\u09bf\u09ab\u09bf\u0995\u09c7\u099f": 842,
  "\u2581close": 843,
  "\u2581\u09b2\u09be\u09ad": 844,
  "\u2581except": 845,
  "\u2581\u09a6\u09bf\u09af\u09bc\u09c7\u099b\u09c7\u09a8": 846,
  "\u2581today": 847,
  "\u2581\u09ac\u09cd\u09af\u09ac\u09b9\u09be\u09b0\u0995\u09be\u09b0\u09c0": 848,
  "\u2581\u0995\u09b0\u09cd\u09ae": 849,
  "\u2581America": 850,
  "\u2581\u09ad\u09c1\u09b2": 851,
  "\u2581\u09af\u0987": 852,
  "\u2581\u09af\u09be\u09a8": 853,
  "\u2581value": 854,
  "\u2581doing": 855,
  "\u2581Those": 856,
  "\u2581\u0995\u0996\u09a8\u09cb": 857,
  "\u09c0": 858,
  "\u2581\u09a4\u09cb\u09ae\u09be\u09a6\u09c7\u09b0\u0995\u09c7": 859,
  "\u2581move": 860,
  "\u2581spirit": 861,
  "al": 862,
  "\u2581\u09aa\u09a1\u09bc\u09c7": 863,
  "\u09ac": 864,
  "\u2581\u09ac\u09be\u09b0": 865,
  "\u2581Christ": 866,
  "\u2581\u0996\u09cb\u09b2\u09be": 867,
  "\u2581E": 868,
  "\u2581Kingdom": 869,
  "\u2581means": 870,
  "\u2581\u0995\u09be\u09b0": 871,
  "\u2581old": 872,
  "u": 873,
  "\u2581\u09aa\u09b0\u09ac\u09b0\u09cd\u09a4\u09c0": 874,
  "\u2581\u09b9\u0993": 875,
  "\u2581\u09a8\u09be\u09ae\u09c7": 876,
  "\u2581\u09ab\u09cb\u09b2\u09cd\u09a1\u09be\u09b0\u09c7\u09b0": 877,
  "\u2581\u0985\u09a8\u09c1\u09ae\u09a4\u09bf": 878,
  "\u2581\u099a\u09af\u09bc\u0987": 879,
  "\u2581\u0986\u09ae\u09c7\u09b0\u09bf\u0995\u09be": 880,
  "\u2581View": 881,
  "\u2581CD": 882,
  "\u2581Indeed": 883,
  "\u2581\u09e7\u09e8": 884,
  "\u2581using": 885,
  "\u2581\u09b8\u09ae\u09af\u09bc\u09c7": 886,
  "\u2581\u09af\u09c7\u0996\u09be\u09a8\u09c7": 887,
  "\u2581\u0986\u09b8\u09c7": 888,
  "\u2581following": 889,
  "\u09aa": 890,
  "\u2581human": 891,
  "\u2581order": 892,
  "f": 893,
  "\u2581\u0989\u09a6\u09cd\u09a6\u09c7\u09b6\u09cd\u09af\u09c7": 894,
  "\u2581night": 895,
  "\u2581\u09ac\u09cd\u09af\u0995\u09cd\u09a4\u09bf": 896,
  "\u2581word": 897,
  "\u2581\u09ed": 898,
  "\u2581\u09aa\u09cd\u09b0\u09c7\u09b0\u09bf\u09a4": 899,
  "\u2581\u09a5\u09be\u0995\u09be": 900,
  "\u2581\u09b9\u09bf\u09b8\u09be\u09ac\u09c7": 901,
  "\u2581\u09ac\u09c1\u099d\u09a4\u09c7": 902,
  "\u2581\u0986\u09b0\u09cb": 903,
  "\u2581look": 904,
  "\u2581\u099b\u09be": 905,
  "\u2581\u09ad\u09be\u09ac\u09c7": 906,
  "\u2581\u09ae\u09be": 907,
  "\u2581clear": 908,
  "\u2581country": 909,
  "\u2581\u09b6\u09a8": 910,
  "\u2581follow": 911,
  "\u2581year": 912,
  "\u2581\u0985\u09ac\u09bf\u09b6": 913,
  "\u2581\u09b8\u09cd\u09a5\u09be\u09a8\u09c0\u09af\u09bc": 914,
  "\u2581\u0995\u09c7\u09ae\u09a8": 915,
  "\u2581\u0985\u09a8\u09c1\u09b8\u09b0\u09a3": 916,
  "\u09a4\u09be": 917,
  "\u2581\u09aa\u09be\u09b0": 918,
  "\u2581really": 919,
  "\u2581thou": 920,
  "\u2581gave": 921,
  "\u2581punishment": 922,
  "\u2581ever": 923,
  "\u2581tell": 924,
  "\u2581told": 925,
  "\u2581three": 926,
  "\u2581\u09a7\u09b0\u09a8": 927,
  "\u2581\u099c\u09be\u09a8\u09c7\u09a8": 928,
  "\u2581\u099f\u09c7\u0995\u09cd\u09b8\u099f": 929,
  "\u2581\u0987\u099a": 930,
  "\u2581\u099c\u09be\u09a8\u09a4\u09c7": 931,
  "\u2581\u09a6\u09c1\u0987": 932,
  "\u2581By": 933,
  "\u2581\u09a8\u09bf\u09a6\u09b0": 934,
  "\u2581\u09a8\u09bf\u09b6\u09cd\u099a\u09bf\u09a4": 935,
  "\u2581\u09ac\u09bf\u09b0\u09c1\u09a6\u09cd\u09a7\u09c7": 936,
  "\u2581\u09b8\u09be\u09a7\u09be\u09b0\u09a3": 937,
  "\u2581\u09b8\u09be\u09b0\u09cd\u09ad\u09be\u09b0\u09c7\u09b0": 938,
  "\u2581little": 939,
  "\u2581\u09a4\u09be\u09b0\u09bf\u0996": 940,
  "\u2581Moses": 941,
  "\u2581called": 942,
  "\u2581both": 943,
  "\u2581support": 944,
  "\u2581`%": 945,
  "\u2581%1$": 946,
  "\u2581\u0995\u09cb\u09a5\u09be\u09af\u09bc": 947,
  "\u2581\u09b8\u09cd\u09a5\u09be\u09a8": 948,
  "g": 949,
  "\u2581contact": 950,
  "\u201c": 951,
  "\u2581\u09b8\u09b0\u09bf\u09af\u09bc\u09c7": 952,
  "L": 953,
  "\u2581send": 954,
  "\u2581\u09af\u0995": 955,
  "\u2581person": 956,
  "\u2581\u0995\u09be\u099c\u09c7": 957,
  "\u09cb": 958,
  "\u2581List": 959,
  "\u2581\u09b8\u09ae\u09cd\u09aa\u09b0\u09cd\u0995\u09c7": 960,
  "\u2581able": 961,
  "\u2581best": 962,
  "\u2581\u0995\u09c7\u09ac\u09b2": 963,
  "\u2581\u09b2\u0997": 964,
  "\u2581start": 965,
  "\u2581land": 966,
  "\u2581task": 967,
  "\u2581\u0985\u09ac\u09b8\u09cd\u09a5\u09be": 968,
  "\u2581group": 969,
  "\u2581\u09a6\u09bf\u09af\u09bc\u09c7\u099b\u09c7": 970,
  "\u2581\u09aa\u09cd\u09b0\u09a6\u09b0\u09cd\u09b6\u09bf\u09a4": 971,
  "\u2581\u09aa\u09c3\u09a5\u09bf\u09ac\u09c0\u09a4\u09c7": 972,
  "\u2581\u09b8\u09a4\u09cd\u09af": 973,
  "\u2581\u09a8\u09bf\u09a8": 974,
  "\u2581\u09aa\u09cd\u09b0\u09af\u09bc\u09cb\u0997": 975,
  "\u2581though": 976,
  "\u2581believers": 977,
  "\u2581\u099b\u09c7\u09a1\u09bc\u09c7": 978,
  "\u2581\u09b0\u09c7": 979,
  ">": 980,
  "\u2581\u09ac\u09b2\u09c7\u09a8": 981,
  "\u2581mode": 982,
  "\u2581document": 983,
  "\u2581son": 984,
  "\u2581Save": 985,
  "\u2581\u09ee": 986,
  "\u2581\u09a4\u09b0": 987,
  "\\": 988,
  "\u2581\u0995\u09be\u099c\u09c7\u09b0": 989,
  "\u2581next": 990,
  "\u2581\u0995\u09b2": 991,
  "\u2581\u0995\u09ae\u09be\u09a8\u09cd\u09a1": 992,
  "\u2581water": 993,
  "\u2581yet": 994,
  "\u09a4": 995,
  "\u2581Unable": 996,
  "\u2581change": 997,
  "\u2581\u0989\u0987\u09a8\u09cd\u09a1\u09cb": 998,
  "\u2581\u09b8\u09ac\u09be\u0987": 999,
  "\u2581Come": 1000,
  "\u2581Go": 1001,
  "\u2581around": 1002,
  "\u2581father": 1003,
  "\u2581\u0986\u09b6\u09be": 1004,
  "\u2581\u09ef": 1005,
  "\u2581X": 1006,
  "\u2581\u099a\u09bf\u09a8\u09cd\u09a4\u09be": 1007,
  "\u2581times": 1008,
  "\u2581\u0997\u09c1\u09b0\u09c1\u09a4\u09cd\u09ac\u09aa\u09c2\u09b0\u09cd\u09a3": 1009,
  "\u2581\u09a8\u09be\u09ae\u09c7\u09b0": 1010,
  "\u2581\u09ae\u09be\u09aa": 1011,
  "\u2581\u09a6\u09c7\u0996\u09c7": 1012,
  "\u2581\u0995\u09b0\u09b2\u09c7": 1013,
  "\u2581nothing": 1014,
  "\u2581available": 1015,
  "\u2581\u099a\u09c7\u09af\u09bc\u09c7": 1016,
  "\u2581\u0985\u09ac\u09b6\u09cd\u09af\u0987": 1017,
  "\u2581\u09b0\u09a6\u09be\u09af\u09bc": 1018,
  "\u2581\u09ac\u09b0\u0982": 1019,
  "\u2581\u09ae\u09c2\u09b2": 1020,
  "\u2581\u0986\u099c": 1021,
  "\u2581\u09ac\u09b8\u09cd\u09a4\u09c1": 1022,
  "\u2581Folder": 1023,
  "\u2581\u09a5\u09be\u0995\u09a4\u09c7": 1024,
  "\u2581\u09ae\u09be\u099d\u09c7": 1025,
  "\u25813": 1026,
  "\u2581Now": 1027,
  "\u2581\u09ac\u09be\u09ac\u09be": 1028,
  "\u2581\u09af\u09a8": 1029,
  "\u09b2": 1030,
  "es": 1031,
  "\u2581\u09a6\u09b2": 1032,
  "\u2581\u09aa\u09cd\u09b0\u09a7\u09be\u09a8": 1033,
  "\u2581\u09e7\u09e7": 1034,
  "\u2581during": 1035,
  "\u2581done": 1036,
  "\u2581\u0985\u09aa\u09c7\u0995\u09cd\u09b7\u09be": 1037,
  "\u2581Some": 1038,
  "\u2581\u09af\u09a6\u09bf\u0993": 1039,
  "\u2581\u09a4\u09bf\u09a8\u09bf\u0987": 1040,
  "\",": 1041,
  "x": 1042,
  "\u2581free": 1043,
  "\u2581\u09b0\u09be\u0996\u09be": 1044,
  "\u2581\u0986\u09ae\u09be\u09a6\u09c7\u09b0\u0995\u09c7": 1045,
  "\u2581\u09a6\u09c7\u0996\u09c1\u09a8": 1046,
  "\u2581\u0985\u099c\u09be\u09a8\u09be": 1047,
  "\u2581\u09aa\u09cd\u09b0\u09ad\u09c1": 1048,
  "\u2581government": 1049,
  "\u2581hand": 1050,
  "\u2581\u09ac\u09bf\u09ac\u09b0\u09a3": 1051,
  "\u2581\u09ac\u09be\u09b0\u09be": 1052,
  "\u2581directory": 1053,
  "b": 1054,
  "\u2581\u09b8\u09ac\u099a\u09c7\u09af\u09bc\u09c7": 1055,
  "h": 1056,
  "\u2581\u0995\u09bf\u099b\u09c1\u0987": 1057,
  "\u2581s": 1058,
  "\u2581File": 1059,
  "\u2581leave": 1060,
  "\u2581\u09ac\u09cd\u09af\u09be\u09aa\u09be\u09b0\u09c7": 1061,
  "\u2581feel": 1062,
  "\u2581Use": 1063,
  "\u2581together": 1064,
  "\u2581different": 1065,
  "\u2581search": 1066,
  "\u2581\u09b8\u09cd\u09a5\u09be\u09aa\u09a8": 1067,
  "\u2581Create": 1068,
  "\u2581\u09ac\u09b2": 1069,
  "\u2581brought": 1070,
  "\u2581\u09ac\u09c8\u09a7": 1071,
  "\u2581GNOME": 1072,
  "\u2581thing": 1073,
  "\u2581\u09b8\u09be\u09b2\u09c7": 1074,
  "\u2581spiritual": 1075,
  "\u2581\u09a4\u09c1\u09b2\u09c7": 1076,
  "\u2581\u09b8\u09ae\u09af\u09bc\u09c7\u09b0": 1077,
  "\u2581full": 1078,
  "\u2581took": 1079,
  "\u2581\u0996\u09c1\u0981\u099c\u09c7": 1080,
  "\u2581\u09a1\u09bf\u09b0\u09c7\u0995\u09cd\u099f\u09b0\u09bf": 1081,
  "\u2581Satan": 1082,
  "\u2581Image": 1083,
  "\u2581video": 1084,
  "\u2581saying": 1085,
  "\u2581\u09a8\u09bf\u09b0\u09cd\u09a7\u09be\u09b0\u09bf\u09a4": 1086,
  "\u09ac\u09be\u09b0": 1087,
  "\u2581\u0987\u099a\u09cd\u099b\u09c1\u0995": 1088,
  "\u2581\u0985\u09a8\u09c1\u09b2\u09bf\u09aa\u09bf": 1089,
  "\u2581signs": 1090,
  "\u2581\u099a\u09be\u09af\u09bc": 1091,
  "\u2581live": 1092,
  "U": 1093,
  "\u2581himself": 1094,
  "\u2581\u09aa\u09cd\u09b0\u09be\u09af\u09bc": 1095,
  "\u2581congregation": 1096,
  "\u2581\u0986\u09b8\u09ac\u09c7": 1097,
  "\u2581\u09ad\u09be\u0987": 1098,
  "\u2581option": 1099,
  "\u2581\u09ac\u09c7\u09b6": 1100,
  "\u2581\u0985": 1101,
  "\u2581\u098f\u09b8\u09c7": 1102,
  "\u2581\u09ae\u09c3\u09a4": 1103,
  "\u2581\u09aa\u09cd\u09b0\u099a\u09be\u09b0": 1104,
  "\u2581Oh": 1105,
  "\u2581cause": 1106,
  "\u2581\u098f\u0995\u09c7": 1107,
  "\u2581\u09ae\u09b0\u09a3": 1108,
  "\u2581\u09aa\u09a1\u09bc\u09be": 1109,
  "\u2581disc": 1110,
  "\u2581\u09b2\u09cb\u0995\u09c7\u09a6\u09c7\u09b0": 1111,
  "\u2581default": 1112,
  "\u2581hope": 1113,
  "\u2581\u09af\u09a4\u09c0\u09a4": 1114,
  "\u2581calendar": 1115,
  "or": 1116,
  "\u0986\u09ae\u09bf": 1117,
  "\u2581\u09b9\u09b2\u09cb": 1118,
  "\u2581\u0985\u09ac\u09b8\u09cd\u09a5\u09be\u09af\u09bc": 1119,
  "\u2581\u0995\u09cd\u09af\u09be\u09b2\u09c7\u09a8\u09cd\u09a1\u09be\u09b0": 1120,
  "\u2581\u0997\u09a4": 1121,
  "\u2581\u0990": 1122,
  "H": 1123,
  "\u2581\u09b2\u09bf\u0996\u09c1\u09a8": 1124,
  "\u2581\u09a8\u09bf\u09a4\u09c7": 1125,
  "\u2581An": 1126,
  "\u0986\u09b0": 1127,
  "\u2581\u09aa\u09be\u09ac\u09c7": 1128,
  "\u2581\u09b0\u09ad\u09c1\u09b0": 1129,
  "\u2581\u09ac\u09cd\u09af\u09ac\u09b9\u09be\u09b0\u0995\u09be\u09b0\u09c0\u09b0": 1130,
  "\u2581\u09b9\u09cb\u0995": 1131,
  "\u2581later": 1132,
  "\u2581deeds": 1133,
  "\u2581understand": 1134,
  "\u2581course": 1135,
  "\u2581local": 1136,
  "\u2581Israel": 1137,
  "\u2581parents": 1138,
  "\u2581\u0985\u09ac\u09b8": 1139,
  "\u2581try": 1140,
  "\u2581\u09b8\u0999": 1141,
  "\u2581please": 1142,
  "\u2581whether": 1143,
  "\u2581\u0985\u09a8\u09cd\u09a4\u09b0\u09cd\u09ad\u09c1\u0995\u09cd\u09a4": 1144,
  "an": 1145,
  "\u2581\u09ac\u09bf\u0995\u09b2\u09cd\u09aa": 1146,
  "\u2581\u09ae\u09be\u09b0\u09be": 1147,
  "\u2581\u0989\u09b2\u09cd\u09b2\u09bf\u0996\u09bf\u09a4": 1148,
  "\u2581\u09af\u09c7\u09b0": 1149,
  "\u2581certainly": 1150,
  "\u2581\u09e7\u09ea": 1151,
  "\u2581\u09a7\u09b0": 1152,
  "\u2581\u09ab\u09be\u0987\u09b2\u099f\u09bf": 1153,
  "\u2581\u09e7\u09e9": 1154,
  "\u2581Yeah": 1155,
  "k": 1156,
  "\u2581\u0995\u09cd\u09b2\u09bf\u0995": 1157,
  "\u2581case": 1158,
  "\u2581\u09b8\u09be\u09b9\u09be\u09af": 1159,
  "\u2581media": 1160,
  "\u2581always": 1161,
  "\u2581anything": 1162,
  "\u2581\u09aa\u0995": 1163,
  "\u2581young": 1164,
  "\u2581Add": 1165,
  "\u2581dead": 1166,
  "\u2581DVD": 1167,
  "\u2581\u09b8\u09ae\u09cd\u09ad\u09ac\u09a4": 1168,
  "\u2581\u0995\u09a4": 1169,
  "\u2581Don": 1170,
  "\u2581\u0985\u09a5\u099a": 1171,
  "\u2581thee": 1172,
  "\u2581\u099b\u09cb\u099f": 1173,
  "\u2581\u09ac\u09cd\u09af\u09ac\u09b9\u09be\u09b0\u09c7\u09b0": 1174,
  "\u2581knows": 1175,
  "\u2581\u09b0\u09b9\u09a3": 1176,
  "\u2581\u0996\u09c1\u09b2\u09c1\u09a8": 1177,
  "\u09ae\u09c7\u0987\u09b2": 1178,
  "\u2581Well": 1179,
  "\u2581\u09ac\u09b2\u09ac\u09c7": 1180,
  "\u2581Key": 1181,
  "\u2581city": 1182,
  "\u2581\u0995\u09a0\u09bf\u09a8": 1183,
  "\u2581line": 1184,
  "\u2581service": 1185,
  "\u2581\u0989\u09a6": 1186,
  "\u2581\u0989\u09a6\u09be\u09b9\u09b0\u09a3": 1187,
  "\u2581\u0986\u09b8\u09b2\u09c7": 1188,
  "\u2581\u09a4\u09c7": 1189,
  "\u2581Word": 1190,
  "\u2581\u0996\u09c1\u09ac\u0987": 1191,
  "eth": 1192,
  "w": 1193,
  "\u2581\u09b2\u09cb\u0995\u09a6\u09c7\u09b0": 1194,
  "\u2581David": 1195,
  "\u09be\u09b0": 1196,
  "on": 1197,
  "\u2581\u09aa\u09a5\u09c7": 1198,
  "\u2581\u09a6\u09b0\u0995\u09be\u09b0": 1199,
  "\u2581\u0985\u09a8\u09c1\u09b0\u09cb\u09a7": 1200,
  "\u2581few": 1201,
  "\u2581Messenger": 1202,
  "\u2581With": 1203,
  "\u2581wife": 1204,
  "\u2581\u09aa\u09c2\u09b0\u09cd\u09ac\u09ac\u09b0\u09cd\u09a4\u09c0": 1205,
  "\u2581\u0985\u09b8": 1206,
  "\u2581wrote": 1207,
  "\u2581return": 1208,
  "\u2581N": 1209,
  "\u2581\u09aa\u09b0\u09bf\u099a\u09af\u09bc": 1210,
  "\u2581\u0985\u09cd\u09af\u09be\u09aa\u09cd\u09b2\u09bf\u0995\u09c7\u09b6\u09a8": 1211,
  "\u2581\u0997\u09c7": 1212,
  "\u2581Search": 1213,
  "\u2581\u09b6\u09bf\u0995\u09cd\u09b7\u09be": 1214,
  "\u2581\u0995\u09b0\u099b\u09c7\u09a8": 1215,
  "\u2581\u09a7\u09a8\u09cd\u09af\u09ac\u09be\u09a6": 1216,
  "\u2581\u09ac\u09c7\u09b6\u09c0": 1217,
  "\u2581\u0995\u09a8\u09ab\u09bf\u0997\u09be\u09b0\u09c7\u09b6\u09a8": 1218,
  "\u2581Message": 1219,
  "\u2581Set": 1220,
  "\u2581face": 1221,
  "\u2581\u09b2\u09cb\u0995\u09c7\u09b0\u09be": 1222,
  "\u2581remember": 1223,
  "\u2581\u09b8\u09ae\u09cd\u09aa\u09c2\u09b0\u09cd\u09a3": 1224,
  "\u2581\u09b0\u09b8\u09c2\u09b2": 1225,
  "\u2581mankind": 1226,
  "*": 1227,
  "\u2581brother": 1228,
  "\u2581\u09b9\u09be\u09a4": 1229,
  "\u2581state": 1230,
  "\u2581\u09ac\u09b2\u09b2\u09c7": 1231,
  "\u2581\u09b8\u0982\u09b8\u09cd\u0995\u09b0\u09a3": 1232,
  "\u2581\u09a6\u09bf\u09a8\u09c7\u09b0": 1233,
  "\u2581D": 1234,
  "\u2581forth": 1235,
  "\u2581\u0987\u09ae\u09cd\u09aa\u09cb\u09b0\u09cd\u099f": 1236,
  "\u2581peace": 1237,
  "\u2581\u09aa\u09a6": 1238,
  "\u099c": 1239,
  "\u2581\u0985\u09aa\u09b6\u09a8": 1240,
  "\u0995\u09bf": 1241,
  "\u2581At": 1242,
  "\u2581\u098f\u09ae\u09a8\u0995\u09bf": 1243,
  "\u2581\u09b0\u09b8": 1244,
  "\u2581\u09a6\u09bf\u09a8\u09c7": 1245,
  "\u2581brothers": 1246,
  "\u2581\u0989\u09a4": 1247,
  ".\"": 1248,
  "\u2581\u09aa\u099b\u09a8\u09cd\u09a6": 1249,
  "\u2581However": 1250,
  "\u2581\u09a6\u09bf\u09af\u09bc\u09c7\u099b\u09bf": 1251,
  "\u2581Where": 1252,
  "\u2581mercy": 1253,
  "\u2581These": 1254,
  "\u2581\u0987\u09a8\u09b8\u09cd\u099f\u09b2": 1255,
  "\u2581\u09a8\u09be\u09ae\u0995": 1256,
  "\u2581\u09b8\u0982\u09af\u09c1\u0995\u09cd\u09a4": 1257,
  "':": 1258,
  "\u2581\u09aa\u09cd\u09b0\u09a6\u09b0\u09cd\u09b6\u09a8\u09c7\u09b0": 1259,
  "\u2581\u09b8\u09ae\u09b0\u09cd\u09a5\u09bf\u09a4": 1260,
  "\u2581version": 1261,
  "\u2581\u09e7\u09ec": 1262,
  "\u2581\u0995\u09ae": 1263,
  "\u2581\u09a6\u09c7\u0993\u09af\u09bc\u09be\u09b0": 1264,
  "\u2581empty": 1265,
  "\u2581\u0995\u09be\u099c\u09c7\u0987": 1266,
  "\u2581mind": 1267,
  "\u2581\u0995\u09b0\u09b2": 1268,
  "\u2581B": 1269,
  "\u2581eyes": 1270,
  "\u2581John": 1271,
  "\u2581\u0985\u09a8\u09c1\u09b8\u09be\u09b0\u09c7": 1272,
  "\u2581since": 1273,
  "\u2581\u09a6\u09c7\u09ac\u09c7\u09a8": 1274,
  "\u2581\u09ae\u09a5\u09bf": 1275,
  "\u2581hear": 1276,
  "\u2581\u09b0\u09b9": 1277,
  "st": 1278,
  "\u2581meeting": 1279,
  "\u2581\u09a6\u09bf\u09af\u09bc\u09c7\u099b\u09bf\u09b2\u09c7\u09a8": 1280,
  "\u2581\u09ac\u09be\u09a8": 1281,
  "\u2581\u09ab\u09c7\u09b2\u09a4\u09c7": 1282,
  "\u2581child": 1283,
  "\u2581action": 1284,
  "\u2581\u098f\u09b0\u09aa\u09b0": 1285,
  "\u2581After": 1286,
  "\u2581important": 1287,
  "\u2581\u09b0\u0995\u09be\u09b6": 1288,
  "\u2581b": 1289,
  "\u2581\u09ac\u09b2\u09c1\u09a8": 1290,
  "\u2581\u09b8\u0982\u09ac\u09be\u09a6": 1291,
  "\u2581size": 1292,
  "\u2581\u09b0\u09a6": 1293,
  "\u2581\u09aa\u09cd\u09b2\u09be\u0997": 1294,
  "\u2581\u0985\u09a8\u09c1\u09ae\u09cb\u09a6\u09a8": 1295,
  "\u2581reward": 1296,
  "\u2581seen": 1297,
  "\u2581\u09e7\u09ed": 1298,
  "\u2581Or": 1299,
  "\u2581\u0998\u099f\u09a8\u09be": 1300,
  "\u2581\u09aa\u09c7\u09a4\u09c7": 1301,
  "\u2581\u099b\u09ac\u09bf\u09b0": 1302,
  "\u2581\u0996\u09c7\u09b2\u09be\u09b0": 1303,
  "\u2581asked": 1304,
  "\u2581\u09ae\u09c1\u09a6\u09cd\u09b0\u09a3": 1305,
  "\u2581house": 1306,
  "\u2581\u09a8\u09bf\u09b7\u09cd\u0995\u09cd\u09b0\u09bf\u09af\u09bc": 1307,
  "2": 1308,
  "\u2581\u09af\u09be\u0993\u09af\u09bc\u09be\u09b0": 1309,
  "\u2581became": 1310,
  "\u2581\u09b0\u09a8": 1311,
  "\u2581\u09aa\u09b7": 1312,
  "\u2581add": 1313,
  "\u2581\u09b0\u09c2\u09aa\u09c7": 1314,
  "\u09a8\u09bf": 1315,
  "\u2581folders": 1316,
  "\u2581\u098f\u09b8\u09c7\u099b\u09c7": 1317,
  "\u2581\u09a5\u09be\u0995": 1318,
  "\u2581Display": 1319,
  "\u2581Al": 1320,
  "\u2581matter": 1321,
  "\u2581everything": 1322,
  "\u2581\u09ab\u09bf\u09b0\u09bf\u09af\u09bc\u09c7": 1323,
  "\u2581\u09b8\u09cd\u09ac\u09be\u0995\u09cd\u09b7\u09b0": 1324,
  "\u2581Us": 1325,
  "\u09bf\u0982": 1326,
  "\u2581\u0996": 1327,
  "\u2581\u09b8\u09c1\u09af\u09cb\u0997": 1328,
  "\u2581\u0985\u09a8\u09c1\u0997": 1329,
  "\u2581GDM": 1330,
  "\u2581\u09ae\u09be\u09a8\u09c7": 1331,
  "\u2581Most": 1332,
  "\u2581location": 1333,
  "\u2581\u09a6\u09c7\u09ac\u09c7": 1334,
  "\u2581\u09b8\u09cd\u09af\u09be\u09b0": 1335,
  "\u2581apostle": 1336,
  "\u2581\u09aa\u09b0\u09bf\u09ac\u09b0\u09cd\u09a4\u09c7": 1337,
  "\u2581\u09ac\u09cd\u09af\u0995\u09cd\u09a4\u09bf\u0997\u09a4": 1338,
  "\u2581revealed": 1339,
  "\u2581\u099f\u09be": 1340,
  "\u2581\u09e8\u09e6": 1341,
  "?\u2019\u2019": 1342,
  "\u2581Invalid": 1343,
  "\u2581\u09a1\u09b2": 1344,
  "\u2581Have": 1345,
  "\u2581\u099c\u09be\u09a8\u09c7": 1346,
  "\u2581Asia": 1347,
  "\u2581prayer": 1348,
  "\u2581lost": 1349,
  "\u2581\u0985\u0995\u09cd\u09b7\u09b0": 1350,
  "\u2581\u09b8\u09ae\u09b0\u09cd\u09a5\u09a8": 1351,
  "\u2581thought": 1352,
  "\u2581\u09ac\u09be\u09b0\u09cd\u09a8": 1353,
  "\u2581Get": 1354,
  "\u2581mean": 1355,
  "\u2581far": 1356,
  "\u2581taken": 1357,
  "`": 1358,
  "\u2581\u09b8\u09c7\u09ac\u09be": 1359,
  "\u2581\u09af\u09be\u0993\u09af\u09bc\u09be": 1360,
  "\u2581\u09aa\u09cd\u09b0\u0995\u09be\u09b6\u09bf\u09a4": 1361,
  "\u2581ID": 1362,
  "\u2581\u09b0\u09be\u09a8": 1363,
  "\u2581servants": 1364,
  "\u2581\u09b9\u09a4\u09cb": 1365,
  "\u2581mother": 1366,
  "\u2581disbelieve": 1367,
  "\u2581near": 1368,
  "\u2581\u099c\u09a8\u09cd\u09af\u09c7": 1369,
  "\u2581\u09a8\u09bf\u09b0\u09be\u09aa\u09a6": 1370,
  "\u0997": 1371,
  "\u2581\u09ae\u09be\u09b8": 1372,
  "\u2581comes": 1373,
  "\u2581righteous": 1374,
  "\u2581\u09e7\u09ef": 1375,
  "\u2581changes": 1376,
  "\u2581\u09ab\u09c7\u09b2\u09c7": 1377,
  "\u2581Picture": 1378,
  "\u2581\u09b8\u09b9\u099c": 1379,
  "\u2581path": 1380,
  "\u2581\u098f\u0995\u099f\u09c1": 1381,
  "\u2581\u099c\u09be\u09a8": 1382,
  "\u2581format": 1383,
  "\u2581\u09af\u09cb\u09b9\u09a8": 1384,
  "\u2581enter": 1385,
  "\u2581temporary": 1386,
  "\u2581gonna": 1387,
  "\u2581source": 1388,
  "\u2581event": 1389,
  "\u2581\u09ae\u09c1\u0995\u09cd\u09a4": 1390,
  "\u2581\u0995\u09bf\u09ad\u09be\u09ac\u09c7": 1391,
  "\u2581\u09b8\u09ce\u0995\u09b0": 1392,
  "\u2581\u09a8\u09bf\u09b6\u09cd\u099a\u09af\u09bc\u0987": 1393,
  "\u2581\u09aa\u09cd\u09b0\u099a\u09c7\u09b7\u09cd\u099f\u09be": 1394,
  "\u2581making": 1395,
  "\u2581\u09a5\u09be\u09aa\u09a8": 1396,
  "\u2581\u099a\u09be\u09b2": 1397,
  "\u2581\u0985\u09ab": 1398,
  "\u2581\u099f\u09cd\u09af\u09be\u09ac": 1399,
  ").": 1400,
  "\u2581living": 1401,
  "\u2581check": 1402,
  "\u2581\u098f\u09a6\u09c7\u09b0": 1403,
  "\u2581\u0996\u09be\u09b0\u09be\u09aa": 1404,
  "\u2581\u09aa\u09c2\u09b0\u09cd\u09ac\u09c7": 1405,
  "\u2581hands": 1406,
  "v": 1407,
  "\u2581\u09ac\u09be\u0995\u09cd\u09af": 1408,
  "\u2581\u09a5\u09be\u09a8": 1409,
  "\u2581\u09b8\u09c3\u09b7\u09cd\u099f\u09bf": 1410,
  "\u2581Hey": 1411,
  "\u2581Muhammad": 1412,
  "\u2581\u0995\u09b2\u09be\u09ae": 1413,
  "\u2581kind": 1414,
  "\u2581didn": 1415,
  "\u2581light": 1416,
  "\u2581known": 1417,
  "\u2581\u09a5\u09be\u0995\u09b2\u09c7": 1418,
  "\u2581fact": 1419,
  "\u2581whose": 1420,
  "\u2581program": 1421,
  "\u2581Copy": 1422,
  "\u2581\u09e7\u09ee": 1423,
  "\u2581(@": 1424,
  "ers": 1425,
  "V": 1426,
  "\u2581supported": 1427,
  "\u2581study": 1428,
  "\u2581bad": 1429,
  "\u2581session": 1430,
  "\u2581\u099a\u09be\u09b2\u09c1": 1431,
  "\u2581\u0986": 1432,
  "\u2581having": 1433,
  "\u2581learn": 1434,
  "\u2581\u09a8\u09bf\u0983\u09b8\u09a8\u09cd\u09a6\u09c7\u09b9": 1435,
  "\u2581\u09ac\u09bf\u09a6\u09cd\u09af\u09ae\u09be\u09a8": 1436,
  "\u2581Exchange": 1437,
  "\u2581F": 1438,
  "\u2581\u09ac\u09bf\u09b7\u09af\u09bc\u09ac\u09b8\u09cd\u09a4\u09c1": 1439,
  "\u2581Did": 1440,
  "\u2581\u09ab\u09a8\u09cd\u099f": 1441,
  "\u2581\u09b9\u09cd\u09af\u09be": 1442,
  "\u2581Enable": 1443,
  "\u2581speak": 1444,
  "\u2581\u09ac\u09b0\u09cd\u09a3\u09a8\u09be": 1445,
  "\u09b9\u09c7": 1446,
  "\u2581field": 1447,
  "\u2581woman": 1448,
  "\u2581date": 1449,
  "\u2581\u09aa\u09cb\u09b7\u09a3": 1450,
  "\u2581\u0995\u09be": 1451,
  "\u2581\u0985\u09b0\u09cd\u09a5": 1452,
  "\u2581angels": 1453,
  "\u2581\u09b0\u09be\u0996\u09c7": 1454,
  "\u2581\u09ac\u09c7\u099b\u09c7": 1455,
  "\u2581color": 1456,
  "\u2581faithful": 1457,
  "\u2581\u09ac\u09bf\u09ac\u09c7\u099a\u09a8\u09be": 1458,
  "\u2581\u09ac\u09cd\u09b2\u0997": 1459,
  "\u2581\u098f\u09b6\u09bf\u09af\u09bc\u09be": 1460,
  "\u2581\u09ab\u09b2": 1461,
  "\u099f": 1462,
  "\u2581reason": 1463,
  "\u2581\u09a6\u09c1": 1464,
  "\u2581\u09a6\u09c7\u09b6\u09c7\u09b0": 1465,
  "\u2581\u0986\u09b0\u09cd\u0995\u09be\u0987\u09ad": 1466,
  "\u2581Africa": 1467,
  "\u2581someone": 1468,
  "\u2581application": 1469,
  "\u2581behind": 1470,
  "\u09b8\u09b9": 1471,
  "\u2581saw": 1472,
  "\u2581\u09b9\u09a4": 1473,
  "\u2581\u09b8\u09be\u09b2\u09c7\u09b0": 1474,
  "),": 1475,
  "\u2581project": 1476,
  "\u2581\u09b8\u09b9": 1477,
  "\u2581hath": 1478,
  "\u2581\u09aa\u09c3\u09a5\u09bf\u09ac\u09c0\u09b0": 1479,
  "\u2581\u09aa\u09be\u09b0\u09ac\u09c7\u09a8": 1480,
  "\u2581\u09aa\u09cd\u09b0\u09be\u09b0\u09cd\u09a5\u09a8\u09be": 1481,
  "\u2581From": 1482,
  "\u2581\u0993\u09af\u09bc\u09c7\u09ac": 1483,
  "\u2581went": 1484,
  "\u2581URI": 1485,
  "\u2581\u0985\u09a8\u09c1\u09aa\u09b8\u09cd\u09a5\u09bf\u09a4": 1486,
  "\u2581\u0995\u09aa\u09bf": 1487,
  "\u2581\u099c\u09c0\u09ac\u09a8\u09c7\u09b0": 1488,
  "\u2581\u09a6\u09cd\u09ac\u09bf\u09a4\u09c0\u09af\u09bc": 1489,
  "\u2581\u09a6\u09c7\u09b6\u09c7": 1490,
  "\u2581position": 1491,
  "\u2581sign": 1492,
  "\u2581\u09ac\u09b0\u09cd\u09b7\u09aa\u099e\u09cd\u099c\u09bf": 1493,
  "\u2581guidance": 1494,
  "\u2581coming": 1495,
  "\u2581turned": 1496,
  "en": 1497,
  "\u2581\u09ad\u09be\u09b7\u09be": 1498,
  "\u2581\u09a8\u09bf\u0995\u099f": 1499,
  "\u2581item": 1500,
  "=": 1501,
  "\u2581\u09a5\u09be\u0995\u09be\u09b0": 1502,
  "\u2581\u09a6\u09bf\u0995": 1503,
  "\u2581run": 1504,
  "\u2581\u0986\u0995\u09be\u09b0": 1505,
  "\u2581\u09ab\u09cb\u09b2\u09cd\u09a1\u09be\u09b0\u09c7": 1506,
  "\u2581\u09ae\u09c1\u0996": 1507,
  "\u09ac\u09bf": 1508,
  "\u2581\u09a8\u09c7\u0993\u09af\u09bc\u09be": 1509,
  "@": 1510,
  "\u2581\u0985\u09a1\u09bf\u0993": 1511,
  "\u2581\u09b8\u09c7\u0997\u09c1\u09b2\u09cb": 1512,
  "\u2581share": 1513,
  "\u2581\u09b8\u09bf\u09a6\u09cd\u09a7\u09be\u09a8\u09cd\u09a4": 1514,
  "W": 1515,
  "\u2581\u09e8\u09ea": 1516,
  "\u2581food": 1517,
  "\u2581talk": 1518,
  "\u2581G": 1519,
  "\u2581Just": 1520,
  "\u2581\u09ac\u09be\u0987\u09ac\u09c7\u09b2\u09c7\u09b0": 1521,
  "\u2581fire": 1522,
  "\u2581instead": 1523,
  "\u2581money": 1524,
  "\u2581\u09b9\u09be\u09a4\u09c7": 1525,
  "\u2581receive": 1526,
  "\u2581\u09b8\u09bf\u09b8\u09cd\u099f\u09c7\u09ae": 1527,
  "\u2581\u09ab\u09cb\u09a8": 1528,
  "\u2581\u0986\u0987\u0995\u09a8": 1529,
  "\u2581received": 1530,
  "\u2581\u09ac\u09c1\u0995\u09ae\u09be\u09b0\u09cd\u0995": 1531,
  "\u2581\u09b8\u09a4\u09cd\u09af\u09bf\u0987": 1532,
  "\u2581configuration": 1533,
  "\u2581\u09b8\u09ae\u09cd\u09aa\u09be\u09a6\u09a8": 1534,
  "\u2581M": 1535,
  "\u2581write": 1536,
  "\u2581\u09a6\u09c7\u0996\u09cb": 1537,
  "\u2581heaven": 1538,
  "\u2581soon": 1539,
  "\u2581\u09af\u09bf\u09b6\u09c1\u09b0": 1540,
  "\u2581public": 1541,
  "\u2581sound": 1542,
  "\u2581Be": 1543,
  "\u2581\u09ac\u09b2\u09b2": 1544,
  "\u2581Abraham": 1545,
  "\u2581\u09a8\u09be\u0993": 1546,
  "\u2581\u0995\u0996\u09a8\u0993": 1547,
  "\u2581Address": 1548,
  "\u09b6": 1549,
  "\u2581\u098f\u099f\u09be\u0987": 1550,
  "\u2581delete": 1551,
  "\u2581\u09b0\u09be\u0996\u09a4\u09c7": 1552,
  "\u2581\u09a4\u09be\u09b8": 1553,
  "\u2581Read": 1554,
  "\u2581\u09a4\u09bf\u09a8": 1555,
  "...(_": 1556,
  "(": 1557,
  "\u2581\u09a4\u09be\u09b0\u09be\u0987": 1558,
  "\u2581\u09ae\u09c7\u09a8\u09c1": 1559,
  "\u2581die": 1560,
  "\u2581therein": 1561,
  "\u2581\u09a8\u09bf\u099c\u09c7\u0995\u09c7": 1562,
  "\u2581\u09aa\u09cd\u09b0\u09ac\u09c7\u09b6": 1563,
  "\u2581\u09aa\u09cd\u09b0\u09ae\u09be\u09a3": 1564,
  "\u2581four": 1565,
  "\u2581\u0995\u09be\u0989\u0995\u09c7": 1566,
  "\u2581enough": 1567,
  "\u2581serve": 1568,
  "\u2581continue": 1569,
  "\u2581trust": 1570,
  "\u2581\u09ae\u09cb\u09a1": 1571,
  "\u2581sin": 1572,
  "\u2581\u09b9\u09be\u099c\u09be\u09b0": 1573,
  "\u2581\u09a8\u09be\u0995\u09bf": 1574,
  "\u2581result": 1575,
  "\u2581\u09ac\u099b\u09b0\u09c7\u09b0": 1576,
  "\u2581Surely": 1577,
  "\u2581verily": 1578,
  "\u2581\u0998\u09cb\u09b7\u09a3\u09be": 1579,
  "\u2581hard": 1580,
  "\u2581\u0986\u09a6\u09c7\u09b6": 1581,
  "\u2581\u09aa\u09cc\u09b2": 1582,
  "\u2581archive": 1583,
  "\u2581\u09ac\u0987": 1584,
  "\u2581\u09aa\u09a1\u09bc\u09a4\u09c7": 1585,
  "\u2581Okay": 1586,
  "\u2581Time": 1587,
  "\u2581\u0995\u09b0\u099b": 1588,
  "\u2581\u098f\u0996\u09a8\u09cb": 1589,
  "\u2581\u0993\u09af\u09bc\u09be\u09a6\u09be": 1590,
  "\u2581\u09aa\u09be\u09af\u09bc": 1591,
  "\u2581\u09ac\u09c0\u0995\u09be\u09b0": 1592,
  "\u2581\u09b0\u0995\u09cd\u09b7\u09be": 1593,
  "\u2581whatever": 1594,
  "\u2581present": 1595,
  "\u2581\u09b8\u09ae\u09cd\u09aa\u09a8\u09cd\u09a8": 1596,
  "\u2581\u098f\u0997\u09c1\u09b2\u09cb": 1597,
  "'-": 1598,
  "\u2581\u09b8\u09b0\u09cd\u09ac\u09b6\u09c7\u09b7": 1599,
  "\u2581along": 1600,
  "\u09b8\u09a8": 1601,
  "\u2581\u09a6\u09c7\u09ac": 1602,
  "\u2581URL": 1603,
  "\u2581\u09aa\u09be\u09a8\u09bf": 1604,
  "\u2581promise": 1605,
  "\u2581Me": 1606,
  "\u2581\u0989\u09ce\u09b8": 1607,
  "\u2581\u09b7\u09ae\u09be": 1608,
  "\u2581\u098f\u09b2": 1609,
  "\u2581P": 1610,
  "\u2581\u09a4\u09c1\u0987": 1611,
  "\u09b2\u09be\u0987\u09a8": 1612,
  "\u2581friends": 1613,
  "\u2581\u09aa\u09ac\u09bf\u09a4": 1614,
  "\u2581\u09b8\u09ae\u09cd\u09aa\u09be\u09a6\u09a8\u09be": 1615,
  "\u2581Mr": 1616,
  "\u2581Even": 1617,
  "\u2581\u099b\u09bf\u09b2\u09be\u09ae": 1618,
  "G": 1619,
  "\u2581\u0989\u09a6\u09cd\u09a7\u09be\u09b0": 1620,
  "\u2581possible": 1621,
  "\u2581special": 1622,
  "\u2581un": 1623,
  "\u2581\u0989\u09aa\u09b2\u09ac\u09cd\u09a7": 1624,
  "\u2581\u09aa\u09cd\u09b0\u09b8\u09cd\u09a4\u09c1\u09a4": 1625,
  "\u2581\u09a6\u09af\u09bc\u09be": 1626,
  "The": 1627,
  "\u2581Unknown": 1628,
  "\u2581\u0997\u09bf\u09af\u09bc\u09c7": 1629,
  "\u2581\u09a4\u09be\u0981\u09b0\u0987": 1630,
  "\u0997\u09c1\u09b2\u09cb\u09b0": 1631,
  "\u2581Contact": 1632,
  "\u2581specified": 1633,
  "\u2581\u09a6\u09bf\u09af\u09bc\u09c7\u099b\u09bf\u09b2\u09be\u09ae": 1634,
  "\u2581\u09b6\u09c0\u09b0\u09cd\u09b7\u099a\u09b0\u09a3": 1635,
  "\u2581\u09b8\u09be\u0995": 1636,
  "\u2581war": 1637,
  "New": 1638,
  "\u2581\u0995\u09cd\u09b7\u09c7\u09a4\u09cd\u09b0": 1639,
  "\u2581\u09b7\u09a3": 1640,
  "\u2581second": 1641,
  "\u2581\u09a4\u09c1\u09a4\u0983": 1642,
  "\u2581Father": 1643,
  "\u2581saved": 1644,
  "\u2581ways": 1645,
  "\u2581often": 1646,
  "\u2581connection": 1647,
  "\u2581anyone": 1648,
  "\u2581People": 1649,
  "\u2581\u099a\u09bf\u09b9\u09cd\u09a8": 1650,
  "\u2581\u09b8\u09be\u0995\u09cd\u09b7\u09be\u09ce\u0995\u09be\u09b0": 1651,
  "\u2581\u09ae\u09c7": 1652,
  "\u2581religion": 1653,
  "\u2581Would": 1654,
  "\u2581\u09a4\u09ae": 1655,
  "\u2581offline": 1656,
  "\u2581gedit": 1657,
  "\u2581seek": 1658,
  "\u2581\u09ac\u09be\u09a6": 1659,
  "\u2581once": 1660,
  "\u2581IMAP": 1661,
  "\u2581images": 1662,
  "\u2581care": 1663,
  "\u2581point": 1664,
  "\u09cd\u09af": 1665,
  "\u2581post": 1666,
  "\u2581language": 1667,
  "\u2581witness": 1668,
  "\u2581pane": 1669,
  "\u2581\u09ad": 1670,
  "\u2581started": 1671,
  "\u2581\u09aa\u09be\u09b2\u09a8": 1672,
  "\u2581\u09ac\u09cd\u09af\u09be\u0996\u09cd\u09af\u09be": 1673,
  "\u09b2\u09bf": 1674,
  "\u2581Yet": 1675,
  "\u2581General": 1676,
  "\u0997\u09c1\u09b2\u09bf": 1677,
  "\u2581i": 1678,
  "\u2581side": 1679,
  "\u2581Remove": 1680,
  "\".": 1681,
  "\u2581\u099c\u09be\u09b9\u09be\u09a8": 1682,
  "\u2581\u0986\u09b2\u09cb\u099a\u09a8\u09be": 1683,
  "\u2581\u09ac\u09cd\u09b2\u0997\u09be\u09b0": 1684,
  "\u2581HTML": 1685,
  "\u2581soul": 1686,
  "\u2581Veri": 1687,
  "\u2581\u09ac\u09bf\u09b7\u09af\u09bc\u099f\u09be": 1688,
  "\u2581\u098f\u09b8\u09ac": 1689,
  "\u2581\u09b6\u09bf\u09b0\u09cb\u09a8\u09be\u09ae": 1690,
  "\u258115": 1691,
  "\u2581thy": 1692,
  "\u2581\u09b0\u09ad\u09c1": 1693,
  "\u2581consider": 1694,
  "\u2581Europe": 1695,
  "\u2581\u09b8\u09ac\u09b8\u09ae\u09af\u09bc": 1696,
  "\u2581See": 1697,
  "K": 1698,
  "\u2581above": 1699,
  "\u2581high": 1700,
  "\u2581options": 1701,
  "\u2581Enter": 1702,
  "\u2581law": 1703,
  "\u2581\u0995\u09b0\u09ac\u09cb": 1704,
  "\u2581Will": 1705,
  "\u2581\u09aa\u09b0\u09bf\u099a\u09bf\u09a4": 1706,
  "\u2581\u09af\u09c7\u09b9\u09c7\u09a4\u09c1": 1707,
  "\u2581\u09b2\u0995\u09cd\u09b7": 1708,
  "\u2581\u0995\u09cd\u09b7\u09ae\u09a4\u09be": 1709,
  "\u2581required": 1710,
  "\u2581\u09a8\u09cb\u099f": 1711,
  "\u2581\u09b0\u09be\u099c\u09be": 1712,
  "\u0986\u09aa": 1713,
  "\u2581\u09b0\u09b8\u09c2\u09b2\u09c7\u09b0": 1714,
  "\u09ac\u09c7": 1715,
  "\u2581Default": 1716,
  "Z": 1717,
  "\u2581\u09b0\u09be\u09aa": 1718,
  "\u2022": 1719,
  "\u2581history": 1720,
  "\u2581\u0993\u0995\u09c7": 1721,
  "\u2581\u0997\u09c7\u09b2": 1722,
  "\u2581valid": 1723,
  "\u2581changed": 1724,
  "\u2581\u0995\u09af\u09bc\u09c7\u0995": 1725,
  "\u2581\u09b6\u09a4": 1726,
  "\u2581\u09b8\u09b0\u0995\u09be\u09b0": 1727,
  "\u2581\u09aa\u09cd\u09b0\u09b6\u09cd\u09a8": 1728,
  "\u2581Prophet": 1729,
  "\u2581least": 1730,
  "\u2581future": 1731,
  "ic": 1732,
  "\u09b2\u09be": 1733,
  "\u2581killed": 1734,
  "\u2581\u0995\u09b0\u09b2\u09be\u09ae": 1735,
  "to": 1736,
  "\u2581\u09a8\u09a5\u09bf": 1737,
  "\u25814": 1738,
  "\u2581\u09a1\u09bf": 1739,
  "\u2581\u09ac\u09bf\u099a\u09be\u09b0": 1740,
  "\u2581Many": 1741,
  "\u2581blog": 1742,
  "\u2581real": 1743,
  "\u2581yourself": 1744,
  "\u2581wait": 1745,
  "\u2581\u09aa\u09cd\u09b0\u09c7\u09ae": 1746,
  "\u2581T": 1747,
  "\u2581access": 1748,
  "\u2581neither": 1749,
  "\u2581\u09a8\u09bf\u09ae\u09cd\u09a8\u09b2\u09bf\u0996\u09bf\u09a4": 1750,
  "\u2581Peter": 1751,
  "\u2581stop": 1752,
  "\u2581\u0989\u09a6\u09cd\u09a6\u09c7\u09b6\u09cd\u09af": 1753,
  "\u2581\u0995\u09bf\u09a4\u09be\u09ac": 1754,
  "\u2581menu": 1755,
  "\u2581\u0985\u09a7\u09bf\u0995": 1756,
  "able": 1757,
  "\u2581problem": 1758,
  "\u2581\u09ae\u09c7\u09ae\u09cb": 1759,
  "\u2581\u09b0\u09c7\u0996\u09c7": 1760,
  "\u2581remove": 1761,
  "\u2581\u09aa\u09b0\u09bf\u099a\u09be\u09b2\u09a8\u09be": 1762,
  "\u2581answer": 1763,
  "\u0995\u09bf\u099b\u09c1": 1764,
  "\u2581alone": 1765,
  "\u2581knew": 1766,
  "\u2581\u09b0\u09be\u09a4": 1767,
  "\u2581\u09aa\u09c3\u09a5\u09bf\u09ac\u09c0": 1768,
  "\u2581desire": 1769,
  "\u09a6": 1770,
  "\u2581connect": 1771,
  "\u2581\u098f\u09b0\u09be": 1772,
  "Other": 1773,
  "com": 1774,
  "\u2581control": 1775,
  "\u2581\u09a1\u09be\u0989\u09a8\u09b2\u09cb\u09a1": 1776,
  "\u2581provided": 1777,
  "\u2581\u09a8\u09c7\u099f\u0993\u09af\u09bc\u09be\u09b0\u09cd\u0995": 1778,
  "\u2581sir": 1779,
  "\u2581Of": 1780,
  "\u2581\u09b0\u0995": 1781,
  "\u2581\u09aa\u09be\u09a8": 1782,
  "\u2581play": 1783,
  "\u2581Delete": 1784,
  "\u2581personal": 1785,
  "\u2581\u09ae\u09c2\u09b8\u09be": 1786,
  "\u2581heard": 1787,
  "ness": 1788,
  "\u2581eat": 1789,
  "\u2581Twitter": 1790,
  "\u2581\u0985\u09ac\u09c8\u09a7": 1791,
  "\u2581\u09ac\u09b2\u09c7\u099b\u09c7\u09a8": 1792,
  "\u2581\u09a6\u09c2\u09b0\u09ac\u09b0\u09cd\u09a4\u09c0": 1793,
  "\u2581King": 1794,
  "(_": 1795,
  "\u2581\u09ae\u09bf\u09a8\u09bf\u099f": 1796,
  "\u2581Because": 1797,
  "\u2581\u09b2\u09c7\u0996\u09be\u09b0": 1798,
  "\u2581Certificate": 1799,
  "\u2581\u09aa\u09b0\u09cd\u09a6\u09be": 1800,
  "\u2581Only": 1801,
  "\u2581%1": 1802,
  "\u2581\u09aa\u09cd\u09b0\u09be\u09aa\u0995": 1803,
  "\u2581accept": 1804,
  "\u2581makes": 1805,
  "\u2581\u09b6\u09af\u09bc\u09a4\u09be\u09a8": 1806,
  "\u2581\u098f\u0997\u09bf\u09af\u09bc\u09c7": 1807,
  "\u2581nation": 1808,
  "\u2581\u099c\u09c7\u09a8\u09c7": 1809,
  "<": 1810,
  "\u2581\u09ac\u09b2\u09b2\u0983": 1811,
  "\u09b8\u09cd\u09ac\u09af\u09bc\u0982\u0995\u09cd\u09b0\u09bf\u09af\u09bc\u09ad\u09be\u09ac\u09c7": 1812,
  "\u2581Fire": 1813,
  "\u2581won": 1814,
  "\u2581\u09a8\u09bf\u09b0\u09cd\u09a6\u09bf\u09b7\u09cd\u099f": 1815,
  "\u2581\u09aa\u09cd\u09b0\u09ad\u09c1\u09b0": 1816,
  "\u2581\u09b9\u09c3\u09a6\u09af\u09bc": 1817,
  "\u2581\u09e8\u09e8": 1818,
  "\u2581lives": 1819,
  "\u2581due": 1820,
  "\u2581\u09aa\u09a1\u09bc\u09c1\u09a8": 1821,
  "\u2581settings": 1822,
  "\u2581H": 1823,
  "\u2581e": 1824,
  "\u2581\u09b8\u09c1\u09b8": 1825,
  "\u2581load": 1826,
  "\u2581none": 1827,
  "\u2581\u09a8\u09be\u09b0\u09c0": 1828,
  "\u2581\u09af\u09be\u0987": 1829,
  "\u2581\u0989\u09aa\u09be\u09b8": 1830,
  "\u2581\u0986\u09ac\u09b0\u09cd\u099c\u09a8\u09be": 1831,
  "\u2581\u0985\u09a7\u09cd\u09af\u09af\u09bc\u09a8": 1832,
  "\u2581\u09aa\u09be\u09aa": 1833,
  "\u2581ministry": 1834,
  "\u2581\u0993\u09b0\u09be": 1835,
  "\u2581\u0989\u09aa\u09be\u09b8\u09a8\u09be": 1836,
  "\u0986\u09ae\u09b0\u09be": 1837,
  "\u09b9": 1838,
  "\u2581works": 1839,
  "\u2581report": 1840,
  "\u2581\u09a6\u09cd\u09b0\u09c1\u09a4": 1841,
  "\u2581Thus": 1842,
  "\u2581\u0993\u09b0": 1843,
  "\u2581began": 1844,
  "\u2581\u09aa\u09be\u09a0": 1845,
  "\u0986\u09ae\u09be\u09b0": 1846,
  "\u0995\u09c3\u09a4": 1847,
  "\u25815": 1848,
  "\u2581copy": 1849,
  "\u2581\u09a4\u09c0": 1850,
  "\u2581\u099e\u09be\u09a8": 1851,
  "\u09a1": 1852,
  "\u2581Here": 1853,
  "\u2581\u0986\u09b8\u09a4\u09c7": 1854,
  "\u2581exists": 1855,
  "\u2581whole": 1856,
  "\u2581\u09af\u09c7\u0995": 1857,
  "\u2581\u0995\u09a0\u09cb\u09b0": 1858,
  "\u2581space": 1859,
  "\u2581\u09ac\u09c3\u09a6\u09cd\u09a7\u09bf": 1860,
  "\u2581process": 1861,
  "\u2581body": 1862,
  "\u2581Look": 1863,
  "\u2581kill": 1864,
  "\u2581\u0987\u0989\u09b0\u09cb\u09aa": 1865,
  "\u2581however": 1866,
  "\u2581\u09ad\u09be\u0997": 1867,
  "\u2581fine": 1868,
  "\u2581\u0985\u09a8\u09cd\u09af\u09a6\u09c7\u09b0": 1869,
  "\u2581wish": 1870,
  "\u2581\u0986\u09af\u09be\u09ac": 1871,
  "\u2581police": 1872,
  "\u2581\u098f\u0996\u09a8\u0993": 1873,
  "\u2581\u098f\u09a4": 1874,
  "\u2581\u09a4\u09b0\u09c7": 1875,
  "\u2581object": 1876,
  "\u2581\u2022": 1877,
  "\u2581happened": 1878,
  "\u2581\u0985\u09a7\u09bf\u0995\u09be\u09b0": 1879,
  "\u2581\u0997\u09bf\u09af\u09bc\u09c7\u099b\u09bf\u09b2": 1880,
  "\u2581Facebook": 1881,
  "\u2581\u09a6\u09b2\u09c7\u09b0": 1882,
  "z": 1883,
  "\u2581\u09b2\u09bf\u0982\u0995": 1884,
  "\u2581Game": 1885,
  "\u2581Organiser": 1886,
  "\u2581R": 1887,
  "\u2581\u09ac\u09be\u09b0\u09cd\u09a4\u09be\u099f\u09bf": 1888,
  "\u2581\u09b8\u09cd\u09a5\u09be\u09a8\u09c7": 1889,
  "\u099a": 1890,
  "\u2581\u0995\u09b0\u09c7\u099b": 1891,
  "\u2581\u09b8\u09a4\u09b0": 1892,
  "\u2581\u09a6\u09c2\u09b0": 1893,
  "\u2581\u09aa\u09cb\u09b8\u09cd\u099f": 1894,
  "\u2581\u09b2\u0995": 1895,
  "\u2581\u09b0\u09b7": 1896,
  "\u2581\u0986\u09aa\u09a1\u09c7\u099f": 1897,
  "\u2581\u0989\u09aa\u09a6\u09c7\u09b6": 1898,
  "\u2581\u09ac\u099c": 1899,
  "\u2581fight": 1900,
  "\u2581therefore": 1901,
  "\u2581Public": 1902,
  "\u2581\u09b8\u09be\u09b0\u09be": 1903,
  "\u2581doesn": 1904,
  "\u2581\u0986\u09ab\u09cd\u09b0\u09bf\u0995\u09be": 1905,
  "\u2581events": 1906,
  "\u2581friend": 1907,
  "\u09ad": 1908,
  "\u2581\u09b6\u0995": 1909,
  "\u2581\u09a5\u09be\u0995\u09c7\u09a8": 1910,
  "\u2581believed": 1911,
  "\u2581\u09ae\u09be\u09a4\u09cd\u09b0": 1912,
  "\u2581online": 1913,
  "\u2581\u09a1\u09be\u099f\u09be": 1914,
  "\u2581\u09af\u09cb\u0997\u09be\u09af\u09cb\u0997": 1915,
  "\u2581\u099a\u09be\u0993": 1916,
  "\u09a4\u09cb\u09ae\u09b0\u09be": 1917,
  "\u2581deleted": 1918,
  "\u2581\u09aa\u09cd\u09b0\u09b8\u09cd\u09a5\u09be\u09a8": 1919,
  "\u2581\u09ac\u09a8\u09cd\u09a7\u09c1": 1920,
  "\u2581\u09e8\u09e7": 1921,
  "\u2581\u09aa\u09b0\u09ae": 1922,
  "\u2581\u09ac\u09cd\u09af\u09be\u0995": 1923,
  "\u2581\u09ae\u09a8\u09cd\u09a4\u09ac\u09cd\u09af": 1924,
  "\u2581trying": 1925,
  "\u2581morning": 1926,
  "\u2581\u09a4\u09a8": 1927,
  "\u2581small": 1928,
  "\u2581\u09af\u09c1\u09a6\u09cd\u09a7": 1929,
  "\u2581head": 1930,
  "\u2581holy": 1931,
  "\u2581\u0993\u09a6\u09c7\u09b0": 1932,
  "\u2581\u09ad\u09cb\u0997": 1933,
  "\u2581\u09b8\u09cd\u09a5\u09be\u09a8\u09be\u09a8\u09cd\u09a4\u09b0": 1934,
  "\u2581\u09b6\u0995\u09cd\u09a4\u09bf": 1935,
  "\u2581\u0993\u09b9": 1936,
  "\u2581re": 1937,
  "\u2581\u09a8\u09c7\u09af\u09bc": 1938,
  "\u2581Server": 1939,
  "\u2581Type": 1940,
  "\u2581Mark": 1941,
  "\u2581GNU": 1942,
  "\u2581\u09ac\u09cd\u09af\u0995\u09cd\u09a4\u09bf\u09a6\u09c7\u09b0": 1943,
  ")...": 1944,
  "\u2581doubt": 1945,
  "\u2581\u099f\u09be\u0995\u09be": 1946,
  "\u09b8\u09ae\u09c2\u09b9": 1947,
  "\u2581\u0986\u09a7\u09cd\u09af\u09be\u09a4\u09cd\u09ae\u09bf\u0995": 1948,
  "\u2581taking": 1949,
  "\u258110": 1950,
  "\u2581security": 1951,
  "\u2581\u0986\u099b\u09c7\u09a8": 1952,
  "\u2581\u09ad\u09bf\u09a8\u09cd\u09a8": 1953,
  "\u2581memo": 1954,
  "\u09bf\u0995": 1955,
  "\u2581marriage": 1956,
  "\u2581\u09ae\u09be\u09a8\u09c1\u09b7\u0995\u09c7": 1957,
  "\u2581blood": 1958,
  "\u2581\u099c\u09be\u09af\u09bc\u0997\u09be": 1959,
  "\u2581\u09aa\u09c1\u09b2\u09bf\u09b6": 1960,
  "\u2581reading": 1961,
  "\u2581contains": 1962,
  "\u2581\u0995\u09a8\u09ab\u09bf\u0997\u09be\u09b0": 1963,
  "\u2581lead": 1964,
  "\u2581\u09ad\u09be\u09b7\u09be\u09af\u09bc": 1965,
  "\u09ae\u09be": 1966,
  "\u2581hold": 1967,
  "+": 1968,
  "\u2581LDAP": 1969,
  "\u2581week": 1970,
  "\u2581\u0985\u09ac\u09a4\u09c0\u09b0": 1971,
  "\u2581\u09a6\u09c1\u0983\u0996\u09bf\u09a4": 1972,
  "\u2581needs": 1973,
  "\u2581\u0993\u0987": 1974,
  "\u2581\u0995\u09b0\u09a4\u09c7\u09a8": 1975,
  "\u2581\u09ae\u09cb\u09a1\u09c7": 1976,
  "\u2581button": 1977,
  "\u2581\u09a4\u09c8\u09b0\u09c0": 1978,
  "el": 1979,
  "\u2581\u098f\u09ad\u09be\u09ac\u09c7": 1980,
  "man": 1981,
  "\u2581allow": 1982,
  "\u2581deny": 1983,
  "\u2581\u09aa\u09c1\u09b0\u09cb": 1984,
  "\u2581\u09a8\u09bf\u099a\u09c7": 1985,
  "\u2581\u09a5\u09be\u09af\u09bc": 1986,
  "\u09c0\u09af\u09bc": 1987,
  "\u2581POP": 1988,
  "ar": 1989,
  "\u2581\u0986\u09a1\u09bc\u09be\u09b2": 1990,
  "\u2581yourselves": 1991,
  "\u2581gives": 1992,
  "\u2581\u09aa\u09c3\u09b7\u09cd\u09a0\u09be": 1993,
  "\u0995\u09be\u09b0\u09c0\u09a6\u09c7\u09b0": 1994,
  "\u2581wanted": 1995,
  "soever": 1996,
  "\u2581either": 1997,
  "\u2581\u0995\u09bf\u0982\u09ac\u09be": 1998,
  "\u2581\u09aa\u09cd\u09b0\u09cb\u0997\u09cd\u09b0\u09be\u09ae": 1999,
  "\u2581\u09ae\u09c3\u09a4\u09cd\u09af\u09c1": 2000,
  "\u2581\u09b6\u09be\u09b8\u09cd\u09a4\u09bf": 2001,
  "\u2581\u099c\u09be\u09a8\u09be": 2002,
  "\u2581\u09ae\u09a8\u09cb\u09af\u09cb\u0997": 2003,
  "\u2581\u09af\u09c1\u0995\u09cd\u09a4": 2004,
  "1$": 2005,
  "\u2581past": 2006,
  "\u2581\u0996\u09ac\u09b0": 2007,
  "\u2581\u09aa\u09c2\u09b0\u09cd\u09a3": 2008,
  "\u2581\u09aa\u09ac\u09bf\u09a4\u09cd\u09b0": 2009,
  "\u2581king": 2010,
  "\u2581question": 2011,
  "\u2581appointed": 2012,
  "\u2581certain": 2013,
  "\u2581<": 2014,
  "\u2581Good": 2015,
  "\u2581Free": 2016,
  "\u2581\u09ac\u09bf\u09b7\u09af\u09bc\u099f\u09bf": 2017,
  "\u2581\u0985\u09b0": 2018,
  "\u2581getting": 2019,
  "\u2581provide": 2020,
  "\u2581\u09ac\u0982\u09b8": 2021,
  "\u2581\u09e8\u09e9": 2022,
  "\u2581purpose": 2023,
  "\u2581\u0987\u099a\u09cd\u099b\u09be": 2024,
  "\u2581\u09a7\u09be\u09b0\u09a3\u09be": 2025,
  "\u2581\u09aa\u09b0\u09be\u09ae\u09b0\u09cd\u09b6": 2026,
  "at": 2027,
  "\u2581\u09a8\u09be\u0987": 2028,
  "\u2581Start": 2029,
  "\u0997\u09c1\u09b2\u09cb\u0995\u09c7": 2030,
  "\u2581label": 2031,
  "\u2581\u0986\u099b\u09bf": 2032,
  "\u2581\u0986\u09b8\u09be": 2033,
  "\u2581\u09a1\u09bf\u09ad\u09be\u0987\u09b8": 2034,
  "\u2581remain": 2035,
  "\u2581choose": 2036,
  "\u2581within": 2037,
  "\u2581\u09b0\u09ac\u09c7\u09b6": 2038,
  "\u09a4\u09be\u09b0": 2039,
  "3": 2040,
  "\u2581status": 2041,
  "\u2581stand": 2042,
  "\u2581inside": 2043,
  "\u2581\u0997\u09c0\u09a4\u09b8\u0982\u09b9\u09bf\u09a4\u09be": 2044,
  "\u2581\u09aa\u09cd\u09af\u09be\u0995\u09c7\u099c": 2045,
  "\u2581\u09aa\u09cd\u09b0\u09a4\u09bf\u0995\u09cd\u09b0\u09bf\u09af\u09bc\u09be": 2046,
  "\u2581situation": 2047,
  "\u2581K": 2048,
  "\u2581month": 2049,
  "\u2581article": 2050,
  "\u2581happy": 2051,
  "\u2581\u0986\u0987\u09a8": 2052,
  "\u2581network": 2053,
  "\u2581\u0989\u09a4\u09cd\u09a4\u09ae": 2054,
  "\u2581Number": 2055,
  "\u2581\u099c\u09bf\u099c\u09cd\u099e\u09c7\u09b8": 2056,
  "\u2581Text": 2057,
  "\u2581preaching": 2058,
  "\u2581\u09a6\u09c7\u0996": 2059,
  "\u2581\u0986\u09a8": 2060,
  "\u2581\u0995\u09b0\u09b2\u09c7\u09a8": 2061,
  "\u2581area": 2062,
  "\u2581preview": 2063,
  "\u2581\u0997\u09a1\u09bc\u09c7": 2064,
  "\u2581certificate": 2065,
  "\u2581\u0986\u0998\u09be\u09a4": 2066,
  "\u2581torment": 2067,
  "\u2581Edit": 2068,
  "\u2581school": 2069,
  "\u2581\u09b8\u09c7\u09a6\u09bf\u09a8": 2070,
  "\u2581\u09ac\u09be\u0987\u09b0\u09c7": 2071,
  "\u2581\u09a8\u09bf\u099c": 2072,
  "\u2581safe": 2073,
  "\u2581device": 2074,
  "\u2581response": 2075,
  "\u2581stay": 2076,
  "\u2581toward": 2077,
  "\u2581\u09ae\u09c7\u09a8\u09c7": 2078,
  "\u2581link": 2079,
  "\u2581\u09b8\u09b9\u09af\u09cb\u0997\u09c7": 2080,
  "\u2581five": 2081,
  "\u2581questions": 2082,
  "\u2581\u09aa\u09b0\u09bf\u09ac\u09be\u09b0\u09c7\u09b0": 2083,
  "\u2581\u09a4\u09be\u0981\u09a6\u09c7\u09b0": 2084,
  "\u2581Send": 2085,
  "\u2581\u099e": 2086,
  "un": 2087,
  "\u0995\u09be": 2088,
  "\u2581\u09aa\u09b0\u09bf\u09ae\u09be\u09a3": 2089,
  "\u2581allowed": 2090,
  "\u2581\u0985\u09aa\u09b8\u09be\u09b0\u09a3": 2091,
  "\u2581creation": 2092,
  "\u0995\u09be\u09b0": 2093,
  "\u2581husband": 2094,
  "\u2581\u099a\u09be\u09b0": 2095,
  "\u2581\u09ac\u09bf\u09b0\u09c1\u09a6": 2096,
  "\u2581\u09a5\u09be\u0995\u09bf": 2097,
  "\u2581exist": 2098,
  "\u2581\u09a5\u09c7\u0995\u09c7\u0987": 2099,
  "\u2581meet": 2100,
  "\u2581\u0995\u09c7\u09a8\u09a8\u09be": 2101,
  "\u2581\u09b8\u09a8\u09be\u0995\u09cd\u09a4": 2102,
  "\u2581values": 2103,
  "\u2581running": 2104,
  "\u2581\u09a4\u09bf\u09b0": 2105,
  "\u2581\u09aa\u09b0\u09bf\u099a\u09be\u09b2\u09bf\u09a4": 2106,
  "\u2581towards": 2107,
  "\u2581\u0986\u099c\u0995\u09c7": 2108,
  "\u2581\u09a6\u09c1\u099f\u09bf": 2109,
  "\u2581\u09ab\u09b2\u09be\u09ab\u09b2": 2110,
  "\u2581sons": 2111,
  "\u2581political": 2112,
  "\u2581\u0986\u0995\u09be\u09b6": 2113,
  "\u2581working": 2114,
  "\u2581\u099a\u09be\u0987\u09a4\u09c7": 2115,
  "\u2581\u09a8\u09be\u09ae\u09be\u09af": 2116,
  "\u2581\u09a8\u09bf\u09b0\u09be\u09aa\u09a4\u09cd\u09a4\u09be": 2117,
  "\u2581benefit": 2118,
  "\u2581\u09b0\u09c7\u09b0\u09a3": 2119,
  "\u2581\u0998\u09b0\u09c7": 2120,
  "\u2581\u09b0\u09be\u099c\u09a8\u09c8\u09a4\u09bf\u0995": 2121,
  "est": 2122,
  "\u2581{0}": 2123,
  "\u2581wisdom": 2124,
  "\u2581\u0997\u09cb\u09aa\u09a8": 2125,
  "\u2581Work": 2126,
  "\u2581\u09b8\u09ac\u0995\u09bf\u099b\u09c1": 2127,
  "\u2581\u09b9\u09ac\u09c7\u09a8": 2128,
  "\u09c1": 2129,
  "\u2581Last": 2130,
  "\u2581\u0995\u09be\u09ae\u09a8\u09be": 2131,
  "\u09b8\u09bf": 2132,
  "\u2581astray": 2133,
  "\u2581fellow": 2134,
  "\u2581\u09b2\u09be\u0987\u09a8": 2135,
  "\u2581\u098f\u09a8\u0995\u09cb\u09a1\u09bf\u0982": 2136,
  "\u2581\u09aa\u09b0\u09bf\u09ac\u09be\u09b0": 2137,
  "\u2581helped": 2138,
  "\u2581\u09ae\u09b0": 2139,
  "\u09af\u09cb\u0997\u09cd\u09af": 2140,
  "\u2581\u09b8\u09c1\u09a8\u09cd\u09a6\u09b0": 2141,
  "\u2581User": 2142,
  "\u2581operation": 2143,
  "\u2581thus": 2144,
  "\u2581Click": 2145,
  "\u2581\u09a6\u0995\u09cd\u09b7\u09bf\u09a3": 2146,
  "\u2581Re": 2147,
  "\u2581\u0995\u09b0\u09a4\u09be\u09ae": 2148,
  "\u2581\u09a6\u09bf\u09af\u09bc\u09c7\u099b\u09bf\u09b2": 2149,
  "\u2581\u09ae\u09bf\u09a5\u09cd\u09af\u09be": 2150,
  "\u09ac\u09be": 2151,
  "\u2581Right": 2152,
  "\u2581\u099b\u09c7\u09b2\u09c7": 2153,
  "\u2581pay": 2154,
  "\u2581\u09aa\u09c3\u09a5\u0995": 2155,
  "\u2581disbelievers": 2156,
  "\u2581\u09b8\u09a4\u09cd\u09a4\u09cd\u09ac\u09c7\u0993": 2157,
  ":%": 2158,
  "\u2581hell": 2159,
  "\u2581\u098f\u09a8\u09c7\u099b\u09c7": 2160,
  "\u2581\u09a5\u09bf\u09a4": 2161,
  "\u2581months": 2162,
  "\u2581complete": 2163,
  "\u2581whoever": 2164,
  "\u2581World": 2165,
  "\u2581invalid": 2166,
  "\u2581social": 2167,
  "\u2581\u09aa\u09cd\u09b0\u09ad\u09be\u09ac": 2168,
  "\u2581Photo": 2169,
  "\u2581shown": 2170,
  "\u2581Take": 2171,
  "\u2581ago": 2172,
  "\u2581\u09aa\u09bf\u09a4\u09be": 2173,
  "\u2581opened": 2174,
  "\u2581\u09b8\u09cd\u09ac\u09af\u09bc\u0982\u0995\u09cd\u09b0\u09bf\u09af\u09bc": 2175,
  "\u2581died": 2176,
  "\u2581\u09aa\u0995\u09cd\u09b7\u09c7": 2177,
  "\u2581\u09ac\u09bf\u09af\u09bc\u09c7": 2178,
  "\u2581listen": 2179,
  "\u2581act": 2180,
  "\u2581Print": 2181,
  "\u2581\u0986\u099a\u09b0\u09a3": 2182,
  "\u2581\u0989\u09aa\u09be\u09af\u09bc": 2183,
  "\u2581promised": 2184,
  "\u2581\u0986\u09a8\u09a8\u09cd\u09a6": 2185,
  "\u2581else": 2186,
  "\u2581\u0986\u09aa\u09a8": 2187,
  "\u2581\u0995\u09bf\u09a8\u09cd\u09a4": 2188,
  "\u2581\u09a6\u09c3\u09b7": 2189,
  "\u2581Pharaoh": 2190,
  "\u2581May": 2191,
  "\u2581according": 2192,
  "\u2581theme": 2193,
  "\u2581\u09ad\u09c1\u09b2\u09c7": 2194,
  "\u2581audio": 2195,
  "\u2581including": 2196,
  "\u2581\u09b2\u09be\u09b9\u0995\u09c7": 2197,
  "\u099b\u09c7": 2198,
  "il": 2199,
  "\u2581self": 2200,
  "\u2581\u0986\u09b8": 2201,
  "\u2581story": 2202,
  "\u2581published": 2203,
  "\u2581\u09b0\u09be\u0996\u09be\u09b0": 2204,
  "\u2581\u09b8\u09be\u09b9\u09be\u09af\u09cd\u09af\u09c7": 2205,
  "\u2581\u0986\u09aa\u09a8\u09be\u09a6\u09c7\u09b0": 2206,
  "\u2581drive": 2207,
  "\u2581\u09a8\u09bf\u09af\u09bc\u09a8\u09cd\u09a4\u09cd\u09b0\u09a3": 2208,
  "\u09ab": 2209,
  "\u2581appointment": 2210,
  "\u2581gone": 2211,
  "\u2581members": 2212,
  "~": 2213,
  "\u2581lot": 2214,
  "\u2581\u09aa\u09b0\u09bf\u09a3\u09a4": 2215,
  "\u2581\u0985\u0995\u09be\u09b0\u09cd\u09af\u0995\u09b0": 2216,
  "\u2581\u09aa\u09c1\u09b0\u09c1\u09b7": 2217,
  "\u2581\u09ac\u09c8\u09b6\u09bf\u09b7\u09cd\u099f\u09cd\u09af\u09be\u09ac\u09b2\u09c0": 2218,
  "\u2581guide": 2219,
  "\u2581age": 2220,
  "\u2581\u09b8\u09c0\u09ae\u09be": 2221,
  "\u09b7": 2222,
  "\u2581strong": 2223,
  "\u2581root": 2224,
  "\u2581\u09ac\u09bf\u09b6\u09cd\u09ac\u09b8\u09cd\u09a4": 2225,
  "\u2581\u099c\u09be\u09af\u09bc\u0997\u09be\u09af\u09bc": 2226,
  "\u2581needed": 2227,
  "\u2581\u09ac\u09b2\u099b\u09bf": 2228,
  "\u2581\u09b2\u09cb\u0995\u09c7\u09b0": 2229,
  "\u2581places": 2230,
  "\u2581\u09b8\u09cd\u09a5\u09be\u09af\u09bc\u09c0": 2231,
  "\u09b2\u09c7": 2232,
  "\u2581\u09a7\u09cd\u09ac\u0982\u09b8": 2233,
  "\u2581\u09a8\u09a8": 2234,
  "\u2581ten": 2235,
  "\u2581unbelievers": 2236,
  "\u2581\u09a4\u09be\u09a8": 2237,
  "\u2581\u099c\u09bf\u09a8\u09bf\u09b8": 2238,
  "\u2581disciples": 2239,
  "\u2581\u0986\u09b8\u09be\u09b0": 2240,
  "\u2581Find": 2241,
  "\u2581\u099c\u09be\u09a8\u09cb": 2242,
  "\u2581guided": 2243,
  "\u25816": 2244,
  "\u2581raised": 2245,
  "\u2581seven": 2246,
  "\u2581\u09aa\u09cd\u09b0\u0995\u09cd\u09b0\u09bf\u09af\u09bc\u09be": 2247,
  "\u2581\u09b8\u09cd\u09ac\u09be\u09ad\u09be\u09ac\u09bf\u0995": 2248,
  "\u2581Close": 2249,
  "\u2581\u09ac\u09b2\u09bf": 2250,
  "\u2581\u09aa\u09be\u09a0\u09be\u09a8\u09cb": 2251,
  "\u2581U": 2252,
  "\u2581column": 2253,
  "\u2581\u099a\u09b2\u099b\u09c7": 2254,
  "quot": 2255,
  "\u2581\u09e8\u09eb": 2256,
  "\u25813:": 2257,
  "\u0986\u09ae\u09be\u09a6\u09c7\u09b0": 2258,
  "\u2581\u09e9\u09e6": 2259,
  "\u09ae\u09be\u09a8": 2260,
  "\u2581\u09ac\u09cd\u09af\u09ac\u09b9\u09be\u09b0\u09af\u09cb\u0997\u09cd\u09af": 2261,
  "\u2581Check": 2262,
  "\u2581Such": 2263,
  "\u2581looking": 2264,
  "\u2581\u0986\u09b2\u09be\u09a6\u09be": 2265,
  "\u2581\u099a\u09b2\u09cb": 2266,
  "\u2581single": 2267,
  "\u2581\u09b8\u09ae\u09cd\u09aa\u09be\u09a6\u0995": 2268,
  "\u2581easy": 2269,
  "\u2581\u0993\u099f\u09be": 2270,
  "\u2581main": 2271,
  "\u09b2\u09cb": 2272,
  "\u2581experience": 2273,
  "\u2581obey": 2274,
  "\u2581\u09af\u09c7\u099f\u09be": 2275,
  "\u2581computer": 2276,
  "\u2581\u0996\u09c1\u09b2\u09a4\u09c7": 2277,
  "\u2581\u099c\u09c0\u09ac\u09a8\u09c7": 2278,
  "\u2581\u09af\u09be\u09aa\u09be\u09b0\u09c7": 2279,
  "\u09b0\u09c7": 2280,
  "\u2581plugin": 2281,
  "\u2581host": 2282,
  "\u09a1\u09bf": 2283,
  "\u2581Mail": 2284,
  "\u2581desktop": 2285,
  "\u2581rest": 2286,
  "\u2581\u09a4\u09be\u0981\u09b0\u09be": 2287,
  "\u2581\u09aa\u09a1\u09bc\u09be\u09b0": 2288,
  "\u2581large": 2289,
  "\u25810": 2290,
  "\u2581destroyed": 2291,
  "\u2581Global": 2292,
  "\u2581Their": 2293,
  "\u2581\u09a7\u09be\u09b0\u09a3": 2294,
  "\u2581\u09ac\u09bf\u099a\u09cd\u099b\u09bf\u09a8\u09cd\u09a8": 2295,
  "5": 2296,
  "no": 2297,
  "\u2581based": 2298,
  "\u2581\u0998\u09b0": 2299,
  "\u2581several": 2300,
  "\u2581\u09aa\u09b0\u09bf\u09ac\u09b0\u09cd\u09a4\u09a8\u09c7\u09b0": 2301,
  "\u2581car": 2302,
  "\u2581\u09ac\u09c7\u0981\u099a\u09c7": 2303,
  "\u2581minutes": 2304,
  "\u2581\u09ac\u09b8\u09c7": 2305,
  "\u2581Today": 2306,
  "\u2581Couldn": 2307,
  "\u2581\u098f\u0995\u09ac\u09be\u09b0": 2308,
  "\u2581\u09af\u09c7\u09a6\u09bf\u09a8": 2309,
  "\u2581\u09a8\u09c7\u0993\u09af\u09bc\u09be\u09b0": 2310,
  "\u2581\u0985\u09a4\u09bf\u09b0\u09bf\u0995\u09cd\u09a4": 2311,
  "\u2581Lo": 2312,
  "\u2581giving": 2313,
  "\u2581\u09aa\u09be\u09b0\u09cb": 2314,
  "\u2581\u09b8\u09be\u09ac": 2315,
  "\u2581installed": 2316,
  "\u2581\u09a0": 2317,
  "\u2581greater": 2318,
  "\u2581\u099c\u09cd\u099e\u09be\u09a8": 2319,
  "\u2581string": 2320,
  "\u2581\u09b8\u0982\u09b0\u0995\u09cd\u09b7\u09bf\u09a4": 2321,
  "\u2581problems": 2322,
  "\u2581sins": 2323,
  "\u2581\u0986\u0997\u09c1\u09a8": 2324,
  "\u2581\u09aa\u09b0\u09bf\u09a4": 2325,
  "\u2581\u09aa\u09be\u0993\u09af\u09bc\u09be\u09b0": 2326,
  "\u2581\u09a1\u09c7\u09b8\u09cd\u0995\u099f\u09aa": 2327,
  "\u2581screen": 2328,
  "\u2581loving": 2329,
  "\u2581respect": 2330,
  "\u2581\u09ac\u09cd\u09af\u0995\u09cd\u09a4\u09bf\u09b0": 2331,
  "\u2581forever": 2332,
  "\u2581\u0985\u09b8\u09cd\u09a5\u09be\u09af\u09bc\u09c0": 2333,
  "\u2581\u09ac\u09cd\u09b0\u09be\u0989\u099c\u09be\u09b0": 2334,
  "\u2581Merciful": 2335,
  "\u2581humans": 2336,
  "org": 2337,
  "\u2581Size": 2338,
  "\u2581\u09b8\u09cd\u09a4\u09b0": 2339,
  "\u2581Adam": 2340,
  "\u2581occurred": 2341,
  "\u2581\u09b2\u09be\u0987\u09b8\u09c7\u09a8\u09cd\u09b8": 2342,
  "\u2581\u09b2\u0995\u09cd\u09b7\u09cd\u09af": 2343,
  "\u2581religious": 2344,
  "\u09e6\u09e6\u09e6": 2345,
  "\u2581moves": 2346,
  "\u2581attention": 2347,
  "\u2581enjoy": 2348,
  "\u2581wicked": 2349,
  "\u2581\u09b8\u09a4\u09cd\u09af\u09bf": 2350,
  "\u2581bar": 2351,
  "\u2581\u0995\u09be\u09b0\u09cb": 2352,
  "\u09b8\u09c7": 2353,
  "\u2581sense": 2354,
  "\u2581forgive": 2355,
  "\u2581wealth": 2356,
  "\u2581\u099b\u09ac\u09bf\u099f\u09bf": 2357,
  "\u2581\u098f\u0995\u09cd\u09b8": 2358,
  "\u2581\u0987\u09a8": 2359,
  "\u2581\u09a6\u09c1\u09b0": 2360,
  "\u2581hide": 2361,
  "\u2581Password": 2362,
  "\u2581\u09b8\u09b0\u0995\u09be\u09b0\u09c7\u09b0": 2363,
  "\u2581\u0997\u09a3\u09a8\u09be": 2364,
  "\u2581\u09a7\u09be\u09b0\u09cd\u09af": 2365,
  "\u2581\u09ac\u09be\u0995\u09cd\u09b8": 2366,
  "\u2581\u0986\u099a\u09cd\u099b\u09be": 2367,
  "\u2581\u09ae\u09be\u09b0": 2368,
  "\u2581rather": 2369,
  "\u2581\u09ae\u09be\u09a4\u09cd\u09b0\u09be": 2370,
  "\u2581below": 2371,
  "\u2581\u09ac\u09c0\u09af\u09bc": 2372,
  "$": 2373,
  "\u2581Hell": 2374,
  "\u2581\u09a4\u09ac\u09c1\u0993": 2375,
  "\u2581\u09aa\u09bf\u09a4\u09b0": 2376,
  "\u2581\u09af\u09be\u099a\u09cd\u099b\u09bf": 2377,
  "\u2581\u099c\u09bf\u099c": 2378,
  "\u2581\u09aa\u09b0\u09bf\u099a\u09bf\u09a4\u09bf\u09b0": 2379,
  "\u2581\u09aa\u09cd\u09b0\u09a4\u09cd\u09af\u09be\u0996\u09cd\u09af\u09be\u09a8": 2380,
  "\u2581moved": 2381,
  "\u2581remote": 2382,
  "\u2581\u09ac\u09b2\u09c7\u099b\u09bf\u09b2": 2383,
  "\u2581\u09a8\u09bf\u09b0\u09cd\u09a6\u09c7\u09b6": 2384,
  "\u258120": 2385,
  "\u2581\u09a8\u09bf\u09b0\u09cd\u09ad\u09b0": 2386,
  "\u2581Empathy": 2387,
  "\u2581\u099f\u09c1\u09b2": 2388,
  "\u2581de": 2389,
  "\u2581\u099b\u09a1\u09bc\u09bf\u09af\u09bc\u09c7": 2390,
  "\u2581\u09aa\u09c1\u09a8\u09b0\u09c1\u09a6\u09cd\u09a7\u09be\u09b0": 2391,
  "\u2581Make": 2392,
  "\u2581\u0997\u09cd\u09b2\u09cb\u09ac\u09be\u09b2": 2393,
  "\u2581\u09b8\u09be\u09b0\u09bf": 2394,
  "\u2581\u09b9\u09a8": 2395,
  "\u2581tree": 2396,
  "\u2581\u09aa\u09cd\u09b0\u09a5\u09ae\u09c7": 2397,
  "\u2581\u09b8\u09ac\u09be\u0987\u0995\u09c7": 2398,
  "\u2581century": 2399,
  "\u2581wants": 2400,
  "\u2581log": 2401,
  "4": 2402,
  "\u2581bear": 2403,
  "\u2581denied": 2404,
  "\u2581\u09a4\u09be\u09b2\u09bf\u0995\u09be\u09af\u09bc": 2405,
  "\u0981": 2406,
  "\u2581belongs": 2407,
  "\u2581card": 2408,
  "\u2581Psalm": 2409,
  "\u2581\u0995\u09cd\u09b7\u09ae\u09be": 2410,
  "\u2581editor": 2411,
  "\u2581onto": 2412,
  "\u2581\u09ac\u099c\u09be\u09af\u09bc": 2413,
  "\u2581\u09ac\u09b2\u099b\u09c7": 2414,
  "\u09a4\u09cb": 2415,
  "\u2581\u09a4\u09cb\u09b0": 2416,
  "\u2581keys": 2417,
  "\u2581Scriptures": 2418,
  "\u2581\u09aa\u09bf": 2419,
  "\u2581\u09ac\u09cb\u099d\u09be": 2420,
  "\u09b8\u09cd": 2421,
  "\u2581ready": 2422,
  "\u2581forgiveness": 2423,
  "\u2581\u09a8\u0987": 2424,
  "\u2581contacts": 2425,
  "\u2581\u09b9\u09cb\u09b8\u09cd\u099f": 2426,
  "\u2581component": 2427,
  "\u2581\u09ae\u09c7\u09af\u09bc\u09c7": 2428,
  "\u2581\u09ac\u09b2\u09be\u09b0": 2429,
  "\u2581Choose": 2430,
  "\u2581authority": 2431,
  "\u2581\u0987\u09ac": 2432,
  "\u2581\u0996\u09be\u09ac\u09be\u09b0": 2433,
  "\u2581joy": 2434,
  "\u2581\u099c\u09c0\u09ac\u09bf\u09a4": 2435,
  "\u2581\u0985\u09aa\u09b0\u09be\u09a7": 2436,
  "\u25817": 2437,
  "\u2581okay": 2438,
  "\u2581six": 2439,
  "\u2581permission": 2440,
  "\u2581\u09e8\u09ee": 2441,
  "\u2581Hereafter": 2442,
  "\u2581felt": 2443,
  "\u2581\u0989\u09aa\u09b8\u09cd\u09a5\u09bf\u09a4\u09bf": 2444,
  "\u2581\u09ae\u09a8\u09cb\u09ad\u09be\u09ac": 2445,
  "\u2581ourselves": 2446,
  "\u25811,": 2447,
  "\u2581\u09b0\u09cb\u09ae\u09c0\u09af\u09bc": 2448,
  "\u2581\u09b6\u09c1\u09a8\u09a4\u09c7": 2449,
  "\u2581items": 2450,
  "\u2581\u0998\u099f\u09a8\u09be\u09b0": 2451,
  "\u2581room": 2452,
  "\u09ae\u09af\u09bc": 2453,
  "\u2581Son": 2454,
  "\u2581sea": 2455,
  "\u2581\u09b0\u09bf\u09aa\u09cb\u09b0\u09cd\u099f": 2456,
  "\u09a5": 2457,
  "\u2581avoid": 2458,
  "\u2581\u09b8\u09cd\u09aa\u09b7\u09cd\u099f": 2459,
  "\u2581Home": 2460,
  "up": 2461,
  "\u2581conduct": 2462,
  "\u2581draw": 2463,
  "\u2581\u09a7\u09a8": 2464,
  "\u2581\u09ac\u09bf\u09b7\u09af\u09bc\u09c7\u09b0": 2465,
  "\u2581hour": 2466,
  "\u2581\u09b8\u09c7\u099f\u09bf": 2467,
  "\u25812:": 2468,
  "\u2581\u09a6\u09c2\u09b0\u09c7": 2469,
  "\u2581While": 2470,
  "\u2581girl": 2471,
  "\u2581\u0986\u09aa\u09a8\u09be\u09b0\u09be": 2472,
  "\u2581\u09b8\u09ae\u09cd\u09aa\u09b0\u09cd\u0995": 2473,
  "\u2581\u0995\u09be\u09b2": 2474,
  "\u2581returned": 2475,
  "\u2581Calendar": 2476,
  "\u2581\u0997\u09bf\u09af\u09bc\u09c7\u099b\u09c7": 2477,
  "\u2581everyone": 2478,
  "\u2581hours": 2479,
  "\u2581term": 2480,
  "\u258112": 2481,
  "\u2581shows": 2482,
  "\u2581rights": 2483,
  "\u2581\u099a\u09ae\u09ce\u0995\u09be\u09b0": 2484,
  "\u2581\u09ac\u09be\u09a7\u09be": 2485,
  "\u2581character": 2486,
  "\u2581\u0987\u09ac\u09cd\u09b0\u09c0\u09af\u09bc": 2487,
  "ation": 2488,
  "\u2581\u09ae\u09bf\u09a1\u09bf\u09af\u09bc\u09be": 2489,
  "\u2581Thank": 2490,
  "\u2581font": 2491,
  "\u2581poor": 2492,
  "\u2581\u09aa\u09b0\u09c7\u09b0": 2493,
  "\u2581\u09b9\u0987\u09a4\u09c7": 2494,
  "\u099f\u09bf\u09b0": 2495,
  "\u2581\u09b8\u09ae\u09cd\u09aa\u09cd\u09b0\u09a4\u09bf": 2496,
  "\u2581\u098f\u0987\u09ad\u09be\u09ac\u09c7": 2497,
  "\u2581users": 2498,
  "\u2581\u09a5\u09be\u0995\u09cb": 2499,
  "\u2581\u09a8\u09be\u0997\u09b0\u09bf\u0995": 2500,
  "am": 2501,
  "\u2581\u09a8\u09c0\u099a\u09c7": 2502,
  "\u2581god": 2503,
  "\u2581\u09af\u09a5\u09c7\u09b7\u09cd\u099f": 2504,
  "\u2581United": 2505,
  "\u2581\u09aa\u09b0\u09bf\u09ac\u09b0\u09cd\u09a4\u09bf\u09a4": 2506,
  "\u2581\u09b9\u0987": 2507,
  "\u09bf\u09af\u09bc\u09be": 2508,
  "\u2581early": 2509,
  "\u2581\u099c\u09be\u09a4\u09bf": 2510,
  "\u2581\u266a": 2511,
  "\u2581\u099f\u09c7\u09ac\u09bf\u09b2": 2512,
  "co": 2513,
  "\u2581false": 2514,
  "\u2581\u09ae\u09b9\u09be\u0995\u09be\u09b6\u09ae\u09a8": 2515,
  "\u2581party": 2516,
  "\u2581select": 2517,
  "\u2581\u098f\u09a8\u0995\u09cd\u09b0\u09bf\u09aa\u09cd\u099f": 2518,
  "\u2581\u09ab\u09c7\u09b2\u09be\u09b0": 2519,
  "\u2581signature": 2520,
  "\u2581etc": 2521,
  "\u2581\u09a6\u09c7\u0996\u09be\u0993": 2522,
  "\u2581Organisation": 2523,
  "\u2581\u09ae\u09a7\u09cd\u09af": 2524,
  "\u2581reach": 2525,
  "\u2581community": 2526,
  "\u2581names": 2527,
  "\u2581\u0986\u09a8\u09be": 2528,
  "\u2581truly": 2529,
  "\u2581\u09a8\u09bf\u09b6\u09cd\u099a\u09bf\u09a4\u09b0\u09c2\u09aa\u09c7": 2530,
  "\u2581\u09ad\u09bf\u09a4\u09cd\u09a4\u09bf": 2531,
  "\u2581sorry": 2532,
  "\u2581Group": 2533,
  "\u2581Note": 2534,
  "\u2581\u09a1": 2535,
  "\u2581details": 2536,
  "\u2581tasks": 2537,
  "\u2581written": 2538,
  "\u2581\u09b9\u09be\u09b0": 2539,
  "us": 2540,
  "\u0985": 2541,
  "\u2581Matthew": 2542,
  "\u2581displayed": 2543,
  "\u2581meetings": 2544,
  "\u2581\u09b2\u09c7\u09ac\u09c7\u09b2": 2545,
  "\u2581\u09b8\u09ae\u09be\u09a8": 2546,
  "Comment": 2547,
  "\u2581Synchronis": 2548,
  "\u2581\u0985\u09a4\u09bf": 2549,
  "\u2581\u09b8\u09bf": 2550,
  "\u2581previous": 2551,
  "\u2581calls": 2552,
  "\u2581icon": 2553,
  "\u2581\u09ac\u09cb\u09a7": 2554,
  "\u2581Window": 2555,
  "\u2581\u098f\u0987\u09b0\u0995\u09ae": 2556,
  "\u2581accounts": 2557,
  "\u2581Egypt": 2558,
  "\u2581\u09aa\u09be": 2559,
  "\u2581\u09aa\u09cd\u09b0\u09a4\u09c0\u0995": 2560,
  "\u2581\u09af\u09c0\u09b6\u09c1": 2561,
  "\u2581level": 2562,
  "\u2581\u098f\u0995\u09be\u09a7\u09bf\u0995": 2563,
  "\u2581\u09ac\u09b9\u09c1": 2564,
  "\u2581\u0995\u09af\u09bc\u09c7\u0995\u099f\u09bf": 2565,
  "\u2581followed": 2566,
  "\u2581\u09a6\u09c7\u0996\u09be\u09af\u09bc": 2567,
  "\u2581Other": 2568,
  "\u2581wise": 2569,
  "\u2581\u09ae\u09c7\u09b0\u09c7": 2570,
  "\u2581\u09b0\u09be\u099c\u09cd\u09af\u09c7\u09b0": 2571,
  "\u2581\u09b2\u09c2\u0995": 2572,
  "\u2581lie": 2573,
  "\u2581\u09b8\u09cd\u09a4\u09cd\u09b0\u09c0": 2574,
  "\u2581\u09af\u09bf\u09b9\u09cb\u09ac\u09be\u0995\u09c7": 2575,
  "\u2581\u099a\u09bf\u09a8": 2576,
  "\u2581\u09ac\u09be\u09a7\u09cd\u09af": 2577,
  "\u09a3": 2578,
  "\u2581countries": 2579,
  "\u2581\u0986\u09b8\u09c1\u09a8": 2580,
  "\u00e9": 2581,
  "\u2581fall": 2582,
  "\u2581pass": 2583,
  "\u2581currently": 2584,
  "\u2581Give": 2585,
  "\u2581pray": 2586,
  "\u2581selection": 2587,
  "\u2581\u0986\u09b8\u099b\u09c7": 2588,
  "\u2581\u098f\u09b8": 2589,
  "is": 2590,
  "\u2581\u0997\u09c7\u09b2\u09c7": 2591,
  "\u2581\u09b9": 2592,
  "\u2581According": 2593,
  "\u2581speech": 2594,
  "\u2581South": 2595,
  "\u2581\u099a\u09cb\u0996": 2596,
  "\u2581\u09ac\u09b2\u09c7\u099b\u09c7": 2597,
  "\u25814:": 2598,
  "\u2581blessings": 2599,
  "\"-": 2600,
  "\u2581\u09a6\u09c7\u0996\u09be\u09a8\u09cb": 2601,
  "\u2581colour": 2602,
  "\u2581\u09ac\u09ac\u09b0": 2603,
  "\u2581\u09b8\u09c7\u09b6\u09a8": 2604,
  "\u099c\u09bf": 2605,
  "\u2581\u0995\u09b0\u09c7\u09a8\u09bf": 2606,
  "le": 2607,
  "\u2581\u09aa\u09b0\u0995\u09be\u09b2\u09c7": 2608,
  "\u2581\u09aa\u09c7\u09a8": 2609,
  "\u2581big": 2610,
  "\u2581unknown": 2611,
  "\u2581thinking": 2612,
  "\u2581\u09a6\u09be\u09ac\u09bf": 2613,
  "\u2581similar": 2614,
  "\u2581Pacific": 2615,
  "\u2581Chinese": 2616,
  "\u2581\u099c\u09be\u09a8\u09be\u09a8\u09cb": 2617,
  "\u2581difficult": 2618,
  "\u2581\u0996\u09c1\u09b6\u09bf": 2619,
  "\u2581learned": 2620,
  "\u2581Noah": 2621,
  "\u2581\u0997\u09be\u09a8": 2622,
  "\u09bf\u09af\u09bc\u09c7": 2623,
  "\u2581Change": 2624,
  "\u2581effect": 2625,
  "\u2581Internet": 2626,
  "\u2581\u09a6\u09be\u09a6\u09c7\u09b0": 2627,
  "\u2581\u09aa\u09be\u0987": 2628,
  "\u2581Like": 2629,
  "ment": 2630,
  "\u2581boy": 2631,
  "\u2581\u09ac\u09cd\u09af\u09be\u09aa\u09be\u09b0": 2632,
  "\u2581\u09a6\u09c7\u0996\u09be\u09b0": 2633,
  "\u2581\u09aa\u09be\u09b0\u09cd\u09b8": 2634,
  "\u09b0\u09bf": 2635,
  "\u2581\u09ac\u09bf\u09b8\u09cd\u09a4\u09be\u09b0\u09bf\u09a4": 2636,
  "\u2581email": 2637,
  "\u2581\u0995\u09b0\u09c1\u09a3\u09be": 2638,
  "\u2581job": 2639,
  "\u2581relationship": 2640,
  "\u2581Web": 2641,
  "\u09b8\u09ae": 2642,
  "\u2581Mary": 2643,
  "\u2581\u09b8\u09c1": 2644,
  "\u2581\u09b0\u09be\u099c\u09cd\u09af": 2645,
  "\u2581Greek": 2646,
  "\u2581nations": 2647,
  "\u2581\u09aa\u09a5\u09ad": 2648,
  "\u2581\u09b8\u09be": 2649,
  "\u2581form": 2650,
  "\u2581\u09aa\u09cd\u09b0\u09b8\u09cd\u09a5": 2651,
  "\u2581\u09ac\u09be\u09a1\u09bc\u09bf": 2652,
  "\u2581blogger": 2653,
  "\u2581issue": 2654,
  "\u2581\u0985\u09a8\u09c7\u0995\u09c7": 2655,
  "\u2581\u099a\u09be\u09b2\u09be\u09a8\u09cb": 2656,
  "\u09aa\u09bf": 2657,
  "\u2581drink": 2658,
  "\u2581tab": 2659,
  "\u2581concerning": 2660,
  "\u2581Resurrection": 2661,
  "\u2581\u09aa\u09cd\u09b0\u0995\u09b2\u09cd\u09aa": 2662,
  "\u2581note": 2663,
  "\u2581\u0995\u09be\u09b0\u09a8": 2664,
  "\u2581\u09a6\u09c7\u0996\u09bf": 2665,
  "\u2581deal": 2666,
  "\u2581\u09b9\u09ac\u09be\u09b0": 2667,
  "\u2581disk": 2668,
  "\u2581\u09a1\u09bf\u09b8\u09cd\u0995\u09c7": 2669,
  "\u2581Jews": 2670,
  "\u2581\u09b8\u0982\u0997\u09cd\u09b0\u09b9": 2671,
  "mail": 2672,
  "\u2581authentication": 2673,
  "\u2581likely": 2674,
  "\u2581\u09b9\u09a4\u09cd\u09af\u09be": 2675,
  "\u2581\u09a1\u09be\u09a8": 2676,
  "\u2581pages": 2677,
  "\u2581manager": 2678,
  "\u2581\u0989\u099a\u09cd\u099a\u09a4\u09be": 2679,
  "\u2581\u09b8\u09c1\u09b8\u09ae\u09be\u099a\u09be\u09b0": 2680,
  "\u2581Next": 2681,
  "\u2581sky": 2682,
  "1": 2683,
  "\u2581\u099e\u09be\u09a4\u09be": 2684,
  "\u2581\u099f\u09c1\u0987\u099f": 2685,
  "\u2581\u09af\u09be\u09ac": 2686,
  "\u2581\u09b0\u09a4\u09bf\u09a6\u09be\u09a8": 2687,
  "\u2581non": 2688,
  "\u2581regular": 2689,
  "\u2581\u098f\u0995\u09ae\u09be\u09a4\u09cd\u09b0": 2690,
  "\u2581especially": 2691,
  "\u2581\u09ac\u09be\u09a8\u09be\u09a8": 2692,
  "\u2581\u09b8\u09ac\u09be\u09b0": 2693,
  "\u2581\u0995\u09cb\u09a1": 2694,
  "\u2581covenant": 2695,
  "\u2581million": 2696,
  "\u2581\u098f\u099f\u09be\u0995\u09c7": 2697,
  "\u2581\u09b6\u09be\u09a8\u09cd\u09a4\u09bf": 2698,
  "\u25811:": 2699,
  "\u2581\u09aa\u09b0\u09bf\u09b6\u09cb\u09a7\u0995": 2700,
  "\u2581Since": 2701,
  "\u2581\u09aa\u09b0\u09bf\u09b7\u09cd\u0995\u09be\u09b0": 2702,
  "\u2581Information": 2703,
  "\u2581\u09b7\u09c7\u09a4": 2704,
  "\u2581Play": 2705,
  "\u2581correct": 2706,
  "\u2581\u09b2\u0997\u0987\u09a8": 2707,
  "\u2581\u09b8\u0982\u0996\u09cd\u09af\u0995": 2708,
  "\u2581\u099a\u09b2\u09a4\u09c7": 2709,
  "\u2581Joseph": 2710,
  "\u2581Screen": 2711,
  "\u2581top": 2712,
  "\u2581\u09aa\u09cd\u09b0\u09c7\u09b0\u0995": 2713,
  "\u2581counsel": 2714,
  "\u2581longer": 2715,
  "\u2581setting": 2716,
  "\u2581\u09b2\u09bf\u0996\u09a4\u09c7": 2717,
  "\u2581Disc": 2718,
  "\u2581content": 2719,
  "\u2581\u0996\u09b0\u099a": 2720,
  "\u2581style": 2721,
  "\u2581\u09b8\u09be\u09ae\u09be\u099c\u09bf\u0995": 2722,
  "\u2581\u09b9\u09bf\u09a4\u09cb\u09aa\u09a6\u09c7\u09b6": 2723,
  "\u2581\u09b6\u09aa\u09a5": 2724,
  "\u2581\u09b8\u09ae\u09be\u09aa\u09cd\u09a4\u09bf": 2725,
  "\u2581\u09aa\u09b0\u09bf\u09ac\u09b0": 2726,
  "\u2581Paradise": 2727,
  "\u2581sun": 2728,
  "\u2581evidence": 2729,
  "\u09b8\u09be": 2730,
  "\u2581\u0985\u09a4\u09cd\u09af\u09a8\u09cd\u09a4": 2731,
  "\u2581taught": 2732,
  "\u2581\u09af\u09c7\u09b8\u09ac": 2733,
  "\u2581\u09ad\u09c7\u09ac\u09c7": 2734,
  "\u2581\u09a8\u09be\u09af\u09bf\u09b2": 2735,
  "\u2581\u09aa\u09cd\u09b0\u09be\u0995\u09a6\u09b0\u09cd\u09b6\u09a8": 2736,
  "\u2581spend": 2737,
  "\u2581\u0995\u09be\u09ab\u09c7\u09b0\u09a6\u09c7\u09b0": 2738,
  "\u2581\u09b8\u09a6\u09b8\u09cd\u09af": 2739,
  "\u2581idea": 2740,
  "\u2581\u09b0\u09be\u0996": 2741,
  "\u2581\u09aa\u09c7\u099b\u09a8\u09c7": 2742,
  "\u2581\u0985\u09ac\u09b8\u09cd\u09a5\u09bf\u09a4": 2743,
  "\u2581\u09aa\u09cd\u09b0\u09b6\u09be\u09a8\u09cd\u09a4": 2744,
  "\u2581\u09b6\u0995\u09cd\u09a4\u09bf\u09b6\u09be\u09b2\u09c0": 2745,
  "\u2581besides": 2746,
  "\u2581\u0987\u0999\u09cd\u0997\u09bf\u09a4": 2747,
  "\u2581\u09a7\u09b0\u09be": 2748,
  "\u2581caused": 2749,
  "\u2581test": 2750,
  "\u2581\u09aa\u09cd\u09b0\u09b8\u09c7\u09b8": 2751,
  "\u2581\u09b2\u09bf\u0996\u09c7\u099b\u09c7\u09a8": 2752,
  "\u2581strength": 2753,
  "\u2581\u0986\u0997\u09c7\u09b0": 2754,
  "\u2581\u09aa\u09cd\u09b0\u09bf\u09a8\u09cd\u099f": 2755,
  "\u2581\u09ae\u09c2\u09b2\u09cd\u09af": 2756,
  "\u2581\u098f\u09ac\u09be\u09a6\u09a4": 2757,
  "\u2581\u09b9\u09ac": 2758,
  "\u258111": 2759,
  "\u2581less": 2760,
  "\u2581India": 2761,
  "\u2581\u09a3\u09a8\u09be": 2762,
  "\u2581\u09ae\u09c1\u0995\u09cd\u09a4\u09bf": 2763,
  "\u2581\u09b8\u09b0\u09b2": 2764,
  "\u2581active": 2765,
  "\u2581apostles": 2766,
  "\u2581\u09a8\u09bf\u09af\u09bc\u09ae": 2767,
  "\u2581\u09ae\u09c3\u09a4\u09cd\u09af\u09c1\u09b0": 2768,
  "\u2581\u09b8\u09cd\u09ac\u09a8\u09bf\u09b0\u09cd\u09a7\u09be\u09b0\u09bf\u09a4": 2769,
  "\u2581held": 2770,
  "\u2581walk": 2771,
  "\u2581\u0995\u09cd\u09b2\u09be\u09af\u09bc\u09c7\u09a8\u09cd\u099f": 2772,
  "\u2581background": 2773,
  "\u2581\u09a6\u09be\u09af\u09bc\u09bf\u09a4\u09cd\u09ac": 2774,
  "\u099f\u09be\u09b0": 2775,
  "\u2581\u0987\u09a8\u09cd\u099f\u09be\u09b0\u09a8\u09c7\u099f": 2776,
  "\u2581followers": 2777,
  "\u2581\u09af\u09c7\u09ad\u09be\u09ac\u09c7": 2778,
  "\u2581\u09b2\u09a1\u09bc\u09be\u0987": 2779,
  "\u2581\u0995\u09be\u09ab\u09c7\u09b0": 2780,
  "\u2581\u09b6\u09af\u09bc\u09a4\u09be\u09a8\u09c7\u09b0": 2781,
  "\u2581\u09ac\u09bf\u09b7\u09af\u09bc\u0997\u09c1\u09b2\u09cb": 2782,
  "\u2581tried": 2783,
  "\u2581\u09b6\u09b9\u09b0": 2784,
  "\u2581L": 2785,
  "\u2581\u099a\u09be\u09b2\u09bf\u09af\u09bc\u09c7": 2786,
  "\u2581\u098f\u0995\u09c7\u09ac\u09be\u09b0\u09c7": 2787,
  "\u0986": 2788,
  "\u2581Stop": 2789,
  "\u2581login": 2790,
  "\u2581\u099e\u09be\u09a8\u09c0": 2791,
  "\u2581\u09af\u09be\u0996": 2792,
  "\u2581\u09b0\u09b8\u09c2\u09b2\u0997\u09a3": 2793,
  "\u2581\u09aa\u09b0\u09bf\u09b8\u09cd\u09a5\u09bf\u09a4\u09bf": 2794,
  "\u2581\u09b8\u09ad\u09be": 2795,
  "\u2581reminder": 2796,
  "\u2581\u09aa\u09a6\u09cd\u09a7\u09a4\u09bf": 2797,
  "\u2581\u09ac\u09bf\u09b0\u09be\u099f": 2798,
  "\u2581\u09ae\u09c7\u09b0": 2799,
  "\u2581\u09b8\u09ae\u09cd\u09ae\u09be\u09a8": 2800,
  "\u2581\u0985\u09ad\u09bf\u09af\u09cb\u0997": 2801,
  "\u2581Editor": 2802,
  "\u2581Voices": 2803,
  "\u2581\u09ac\u09bf\u09b6\u09cd\u09ac\u09c7\u09b0": 2804,
  "\u2581Does": 2805,
  "\u2581\u09aa\u09be\u09a5": 2806,
  "\u2581further": 2807,
  "\u2581\u09b6\u09c7\u09b7\u09c7": 2808,
  "\u2581License": 2809,
  "\u2581mentioned": 2810,
  "\u2581panel": 2811,
  "\u2581\u0985\u09a8\u09b2\u09be\u0987\u09a8": 2812,
  "\u2581\u09a4\u09a5\u09cd\u09af\u09c7\u09b0": 2813,
  "\u2581Options": 2814,
  "\u2581expression": 2815,
  "\u2581\u09a8\u09ad\u09cb\u09ae": 2816,
  "\u2581\u0986\u09b8\u09cb": 2817,
  "\u2581\u099c\u09be\u09a4\u09c0\u09af\u09bc": 2818,
  "\u2581\u099f\u09c1\u0987\u099f\u09be\u09b0": 2819,
  "\u2581\u09b9\u09af\u09bc\u09c7\u099b\u09bf\u09b2\u09c7\u09a8": 2820,
  "\u2581\u09a4\u09be\u09b2\u09bf\u0995\u09be\u09b0": 2821,
  "\u2581groups": 2822,
  "\u2581\u09af\u09a4": 2823,
  "Y": 2824,
  "\u2581\u09ac\u09bf\u09b6\u09cd\u09ac": 2825,
  "\u2581\u09ae\u09b9\u09be\u09a8": 2826,
  "\u2581Preferences": 2827,
  "\u2581\u09a6\u09b6": 2828,
  "\u2581secure": 2829,
  "\u2581suffering": 2830,
  "\u2581\u098f\u09b0\u09be\u0987": 2831,
  "\u2581Job": 2832,
  "\u2581\u099f\u09c1\u09b2\u09ac\u09be\u09b0": 2833,
  "\u2581\u09a4\u09be\u09b0\u09bf\u0996\u09c7": 2834,
  "\u2581health": 2835,
  "\u2581\u099c\u09a1\u09bc\u09bf\u09a4": 2836,
  "\u2581\u09a6\u09bf\u0987": 2837,
  "\u2581kept": 2838,
  "\u2581\u09ae\u09be\u09a8\u09ac": 2839,
  "\u2581\u09b9\u09be\u09b0\u09bf\u09af\u09bc\u09c7": 2840,
  "\u2581\u09b6\u09b9\u09b0\u09c7\u09b0": 2841,
  "\u25815:": 2842,
  "\u2581praise": 2843,
  "\u2581\u0995\u09b0\u099b\u09bf\u09b2": 2844,
  "\u2581reports": 2845,
  "\u2581decision": 2846,
  "\u2581rule": 2847,
  "\u2581\u09b8\u09ae\u09b8": 2848,
  ":(_": 2849,
  "\u2581painful": 2850,
  "\u2581\u09b8\u09cd\u09ae\u09b0\u09a3": 2851,
  "\u2581sister": 2852,
  "\u2581\u09aa\u09cd\u09b0": 2853,
  "\u2581XML": 2854,
  "\u2581\u09b0\u09bf": 2855,
  "\u2581\u09b8\u09c7\u099c\u09a8": 2856,
  "\u2581Tab": 2857,
  "\u09bf\u09b0": 2858,
  "\u2581contents": 2859,
  "\u2581myself": 2860,
  "\u2581Although": 2861,
  "\u2581\u0995\u09b0\u09c1\u0995": 2862,
  "\u2581\u09af\u09c7\u0997\u09c1\u09b2\u09cb": 2863,
  "\u2581\u09ac\u09cd\u09af\u09b8\u09cd\u09a4": 2864,
  "\u2581\u09b8\u09aa\u09cd\u09a4\u09be\u09b9": 2865,
  "\u2581bloggers": 2866,
  "\u2581\u09aa\u09be\u09b0\u09ac": 2867,
  "\u2581\u0985\u09ac\u099c\u09c7\u0995\u09cd\u099f": 2868,
  "\u2581W": 2869,
  "\u2581anointed": 2870,
  "\u2581\u09ac\u09a6\u09b2\u09c7": 2871,
  "\u2581Law": 2872,
  "\u2581header": 2873,
  "\u2581Clear": 2874,
  "\u2581Solomon": 2875,
  "\u2581enabled": 2876,
  "\u2581\u0986\u09ae\u09bf\u0993": 2877,
  "ity": 2878,
  "\u2581considered": 2879,
  "\u2581various": 2880,
  "\u2581\u09ae\u09c1\u09ae\u09bf\u09a8\u09a6\u09c7\u09b0": 2881,
  "\u2581\u09af\u09af\u09bc": 2882,
  "\u2581\u09af\u09c1": 2883,
  "\u2581\u09b8\u09be\u09b0\u09cd\u09ad\u09be\u09b0\u09c7": 2884,
  "\u2581track": 2885,
  "\u2581\u09b2\u09c7\u0996\u0995": 2886,
  "\u2581warning": 2887,
  "\u2581\u09ac\u09af\u09bc\u09b8": 2888,
  "\u2581\u09aa\u09c1\u09b0\u09cb\u09aa\u09c1\u09b0\u09bf": 2889,
  "\u2581Jerusalem": 2890,
  "\u2581\u09aa\u09be\u0981\u099a": 2891,
  "\u2581\u09ab\u09cd\u09b2\u09cd\u09af\u09be\u0997": 2892,
  "\u2581desires": 2893,
  "\u2581led": 2894,
  "\u2581\u09a6\u09c7\u0996\u09be\u09a4\u09c7": 2895,
  "\u2581passed": 2896,
  "\u2581writes": 2897,
  "\u2581justice": 2898,
  "\u2581\u0995\u09b0\u09bf\u09af\u09bc\u09c7": 2899,
  "\u2581\u09ac\u09be\u09b8\u09c0": 2900,
  "\u2581fully": 2901,
  "\u2581manifest": 2902,
  "\u2581\u0989\u09aa\u09ad\u09cb\u0997": 2903,
  "\u2581\u09b8\u0982\u09b0\u0995\u09cd\u09b7\u09a3\u09c7\u09b0": 2904,
  "\u2581\u099a\u09be\u09aa": 2905,
  "\u2581Brasero": 2906,
  "\u2581\u09ae\u09be\u09b8\u09c7": 2907,
  "\u2581'{0}'": 2908,
  "\u2581students": 2909,
  "\u2581\u099b\u09c7\u09a8": 2910,
  "\u2581accepted": 2911,
  "\u2581Quran": 2912,
  "\u2581\u0985\u09a4": 2913,
  "\u2581\u09b8\u09be\u0995\u09cd\u09b7\u09bf\u09a6\u09c7\u09b0": 2914,
  "\u2581results": 2915,
  "\u2581prophet": 2916,
  "\u2581\u09ab\u09be\u0987\u09b2\u09c7": 2917,
  "\u2581town": 2918,
  "\u2581\u0995\u09b0\u09cd\u09ae\u09c7\u09b0": 2919,
  "\u09b8\u09ac": 2920,
  "\u2581kingdom": 2921,
  "\u2581\u09af\u09c1\u09a6": 2922,
  "\u2581named": 2923,
  "\u2581revelations": 2924,
  "\u2581\u09aa\u09cb\u09b0\u09cd\u099f": 2925,
  "\u2581\u09aa\u09cd\u09b0\u0995\u09cd\u09b8\u09bf": 2926,
  "\u2581harm": 2927,
  "\u2581married": 2928,
  "\u2581\u09aa\u09cd\u09b0\u09af\u09bc\u09cb\u099c\u09a8\u09c0\u09af\u09bc": 2929,
  "\u2581break": 2930,
  "\u2581former": 2931,
  "\u2581\u0986\u099c\u0995\u09c7\u09b0": 2932,
  "\u2581\u09aa\u09c2\u09b0\u09cd\u09ac": 2933,
  "\u2581custom": 2934,
  "\u2581\u09b8\u09b9\u09be\u09af\u09bc\u09a4\u09be": 2935,
  "\u09ac\u09cb": 2936,
  "\u2581\u09ae\u09c1\u0996\u09cb\u09ae\u09c1\u0996\u09bf": 2937,
  "\u2581enable": 2938,
  "\u2581\u09ae\u09c1\u0996\u09c7": 2939,
  "\u2581\u09b8\u09b0\u09be\u09b8\u09b0\u09bf": 2940,
  "\u2581\u099b\u09bf\u09b2\u09c7": 2941,
  "\u2581software": 2942,
  "\u2581\u09af\u09be\u09ac\u09b0": 2943,
  "\u2581\u09b8\u09be\u09a1\u09bc\u09be": 2944,
  "\u2581\u09af\u09be\u09a3": 2945,
  "\u09af\u09bc\u09c7": 2946,
  "\u2581\u09a8\u09c7\u09af\u09bc\u09be": 2947,
  "\u2581\u09ac\u09bf\u09a4\u09b0\u09a3": 2948,
  "\u2581\u09b8\u09ae\u09cd\u09ad\u09be\u09ac\u09cd\u09af": 2949,
  "\u2581\u09ae\u09be\u09b2\u09bf\u0995": 2950,
  "\u2581\u09aa\u09cd\u09b0\u09b6\u0982\u09b8\u09be": 2951,
  "\u2581teach": 2952,
  "\u2581\u09e8\u09ec": 2953,
  "\u25816:": 2954,
  "\u2581\u09b8\u09ae\u09be\u09a7\u09be\u09a8": 2955,
  "J": 2956,
  "\u2581sending": 2957,
  "\u2581\u098f\u09b8\u09c7\u099b\u09bf\u09b2": 2958,
  "\u2581More": 2959,
  "\u2581\u0985\u09aa\u09b0": 2960,
  "\u2581\u0986\u09b2\u09ac\u09ce": 2961,
  "\u2581\u0998\u09a8\u09cd\u099f\u09be": 2962,
  "ur": 2963,
  "\u2581short": 2964,
  "\u2581\u09b6\u09b9\u09b0\u09c7": 2965,
  "ion": 2966,
  "\u2581\u0985\u09a8\u09c1\u09b0\u09c2\u09aa": 2967,
  "\u2581\u09aa\u09c7\u09af\u09bc\u09c7": 2968,
  "\u2581Files": 2969,
  "\u2581\u0997\u09be\u09a1\u09bc\u09bf": 2970,
  "ian": 2971,
  "\u258130": 2972,
  "\u2581\u09ae\u09b9\u09be\u09b8\u09be\u0997\u09b0\u09c0\u09af\u09bc": 2973,
  "\u2581\u098f\u09b8\u09cb": 2974,
  "\u2581\u0985\u09a8\u09c1\u09ac\u09be\u09a6": 2975,
  "\u2581\u09b8\u09a8\u09cd\u09ac\u09a8\u09cd\u09a7\u09c7": 2976,
  "\u2581teaching": 2977,
  "\u2581\u0989\u099a\u09cd\u099a": 2978,
  "\u2581Dr": 2979,
  "\u2581lies": 2980,
  "\u2581clubs": 2981,
  "\u2581\u09ae\u09c7\u09af\u09bc\u09be\u09a6": 2982,
  "\u2581\u09b0\u09be\u0996\u09c1\u09a8": 2983,
  "\u2581seem": 2984,
  "\u09a4\u09c1\u09ae\u09bf": 2985,
  "\u2581\u099a\u09b2": 2986,
  "\u2581Tell": 2987,
  "\u2581prayers": 2988,
  "\u2581site": 2989,
  "\u2581\u09a7\u09be\u09b0": 2990,
  "\u2581\u09aa\u09cd\u09b0\u0995\u09c3\u09a4": 2991,
  "\u2581diamonds": 2992,
  "\u2581\u09b0\u09be\u09a3": 2993,
  "\u2581Date": 2994,
  "\u2581appear": 2995,
  "\u2581chosen": 2996,
  "\u2581understanding": 2997,
  "\u2581\u0986\u09a8\u09cd\u09a4\u09b0\u09cd\u099c\u09be\u09a4\u09bf\u0995": 2998,
  "\u2581\u0997\u09c1\u09b0\u09c1\u09a4\u09cd\u09ac": 2999,
  "\u2581\u09a5\u09bf\u09ae": 3000,
  "\u2581\u09b8\u09b0\u09cd\u09ac\u09cb\u099a\u09cd\u099a": 3001,
  "\u2581\u09b9\u09b2\u09c7\u09a8": 3002,
  "\u2581\u09ac\u09bf\u09aa\u09b0\u09c0\u09a4": 3003,
  "\u2581\u09aa\u09c7\u09af\u09bc\u09c7\u099b\u09bf": 3004,
  "\u2581English": 3005,
  "\u2581\u0985\u09ac\u09b6\u09bf\u09b7\u09cd\u099f": 3006,
  "\u2581\u0986\u0997\u09c7\u0987": 3007,
  "\u2581private": 3008,
  "\u2581\u0986\u09b0\u09cd\u0997\u09c1\u09ae\u09c7\u09a8\u09cd\u099f": 3009,
  "\u2581Import": 3010,
  "\u2581memory": 3011,
  "\u2581initialise": 3012,
  "\u2581seems": 3013,
  "\u2581\u09a8\u09bf\u099c\u09c7": 3014,
  "\u2581kindness": 3015,
  "\u2581\u09b6\u09bf\u0995\u09be\u09b0": 3016,
  "\u2581matters": 3017,
  "\u2581\u09ac\u09b2\u09b2\u09c7\u09a8\u0983": 3018,
  "\u2581\u09b6\u09be\u09b8\u09a8": 3019,
  "\u2581Israelites": 3020,
  "\u2581visible": 3021,
  "\u2581\u0998\u099f\u09c7": 3022,
  "\u2581protect": 3023,
  "\u2581Line": 3024,
  "\u2581office": 3025,
  "\u2581\u09b8\u09be\u09a4": 3026,
  "\u2581\u09aa\u09be\u0995\u09a1\u09bc\u09be\u0993": 3027,
  "\u09cd\u09b8": 3028,
  "\u2581wives": 3029,
  "\u2581\u09b8\u09c7\u09b6\u09be\u09a8": 3030,
  "\u2581height": 3031,
  "\u2581happen": 3032,
  "\u2581\u0995\u09ae\u09cd\u09aa\u09bf\u0989\u099f\u09be\u09b0": 3033,
  "\u2581\u09aa\u09bf\u099b\u09a8\u09c7": 3034,
  "\u2581Remember": 3035,
  "\u2581web": 3036,
  "\u2581\u09a6\u09c1\u099f\u09cb": 3037,
  "\u099b\u09bf": 3038,
  "\u2581\u09b8\u09c2\u099a\u09a8\u09be": 3039,
  "id": 3040,
  "\u2581\u09aa\u09b0\u09cd\u09af\u09be\u09aa\u09cd\u09a4": 3041,
  "\u2581\u0985\u09ad\u09bf\u099c\u09cd\u099e\u09a4\u09be": 3042,
  "and": 3043,
  "\u2581added": 3044,
  "\u2581\u0993\u09b9\u09c7": 3045,
  "\u2581\u09a7\u09be\u09b0\u09bf\u09a4": 3046,
  "\u2581\u09ae\u09a3\u09cd\u09a1\u09b2\u09c0\u09b0": 3047,
  "\u2581fast": 3048,
  "\u2581\u09af\u09cb\u0997\u09cd\u09af": 3049,
  "\u2581watch": 3050,
  "ia": 3051,
  "\u2581visit": 3052,
  "\u2581\u0996\u09cd\u09b0\u09bf\u09b8\u09cd\u099f\u09be\u09a8": 3053,
  "\u2581itself": 3054,
  "\u2581\u09ad\u09c2\u09ae\u09bf\u0995\u09be": 3055,
  "\u2581met": 3056,
  "\u2581\u09a8\u09bf\u09b0\u09cd\u09ac\u09be\u099a\u09a8\u09c7\u09b0": 3057,
  "\u2581\u09aa\u09cd\u09b0\u09cb\u09ab\u09be\u0987\u09b2": 3058,
  "\u2581\u09b2\u09bf\u0996\u09c7\u099b\u09bf\u09b2\u09c7\u09a8": 3059,
  "\u2581\"{0}\"": 3060,
  "\u2581righteousness": 3061,
  "\u2581front": 3062,
  "\u2581hidden": 3063,
  "\u2581talking": 3064,
  "\u2581\u09aa\u09cd\u09b0\u09be\u099a\u09c0\u09a8": 3065,
  "\u2581\u09ac\u09c8": 3066,
  "\u2581\u0986\u09a4\u09cd\u09ae\u09be": 3067,
  "\u2581\u09ae\u09bf\u09b2": 3068,
  "\u2581\u09b8\u09b9\u09be\u09af\u09bc\u0995": 3069,
  "\u09a4\u09ae": 3070,
  "\u2581\u098f\u0995\u0995": 3071,
  "\u2581\u099c\u09c1\u09a1\u09bc\u09c7": 3072,
  "\u09ce": 3073,
  "\u2581Keep": 3074,
  "\u2581patient": 3075,
  "\u2581across": 3076,
  "\u2581outside": 3077,
  "\u2581\u09ab\u09b2\u09a6\u09be\u09a4\u09be": 3078,
  "\u2581\u09af\u09b8": 3079,
  "\u2581\u09b6\u09a8\u09be\u09ac\u09b2\u09c0": 3080,
  "\u2581fill": 3081,
  "\u2581Foundation": 3082,
  "\u2581judge": 3083,
  "\u2581\u09ac\u09b9\u09a8": 3084,
  "\u2581slave": 3085,
  "\u2581\u099b\u09bf\u09b2\u09cb": 3086,
  "\u2581\u09b8\u09a0\u09bf\u0995\u09ad\u09be\u09ac\u09c7": 3087,
  "it": 3088,
  "\u2581\u0986\u0987": 3089,
  "\u2581\u09a6\u09be": 3090,
  "\u2581specify": 3091,
  "://": 3092,
  "\u2581actions": 3093,
  "\u2581spades": 3094,
  "\u2581windows": 3095,
  "\u2581\u0997\u09c1\u09b2\u09bf": 3096,
  "\u2581*": 3097,
  "\u2581freedom": 3098,
  "\u2581reported": 3099,
  "\u2581map": 3100,
  "\u2581permanently": 3101,
  "\u2581regarding": 3102,
  "\u2581serving": 3103,
  "\u2581\u0995\u09b0\u09c7\u09a8\u09a8\u09bf": 3104,
  "\u2581\u09af\u09be\u09a6\u09c7\u09b0\u0995\u09c7": 3105,
  "\u2581\u09b8\u09cd\u09ac\u09c0\u0995\u09be\u09b0": 3106,
  "\u0995\u09be\u09b2": 3107,
  "\u2581Therefore": 3108,
  "\u2581forget": 3109,
  "\u2581states": 3110,
  "\u2581\u098f\u0995\u09a6\u09b2": 3111,
  "\u2581\u09a8\u09ac\u09c0": 3112,
  "\u2581\u09b0\u09c1\u09b9\u09bf\u09a4\u09a8": 3113,
  "\u2581\u09b8\u09b0\u09cd\u09ac\u09be\u09a7\u09bf\u0995": 3114,
  "\u2581burning": 3115,
  "\u2581table": 3116,
  "\u2581\u0987\u09b6\u0995\u09be\u09aa\u09a8": 3117,
  "\u2581\u099a\u09bf\u09a1\u09bc\u09bf\u09a4\u09a8": 3118,
  "\u2581\u09a6\u09bf\u09b2\u09be\u09ae": 3119,
  "\u2581sight": 3120,
  "\u2581\u099c\u09b2": 3121,
  "\u2581\u09a7\u09b0\u09cd\u09ae\u09c0\u09af\u09bc": 3122,
  "\u2581\u09a8\u09bf\u0995": 3123,
  "\u2581\u09ae\u09bf": 3124,
  "\u2581ancient": 3125,
  "\u2581\u09b0\u09be\u09b0": 3126,
  "\u2581\u0989\u09aa\u0995\u09be\u09b0": 3127,
  "\u258118": 3128,
  "\u2581\u0989\u09aa\u09c7\u0995\u09cd\u09b7\u09be": 3129,
  "\u2581\u09aa\u099f\u09ad\u09c2\u09ae\u09bf\u09b0": 3130,
  "\u2581unless": 3131,
  "\u2581violence": 3132,
  "\u2581\u09ae\u09be\u09a5\u09be": 3133,
  "\u2581prison": 3134,
  "\u2581\u09b9\u09b2\u09c7\u0993": 3135,
  "\u2581forward": 3136,
  "\u2581request": 3137,
  "\u2581\u0986\u0997\u09c1\u09a8\u09c7\u09b0": 3138,
  "\u2581code": 3139,
  "\u2581\u099b\u09af\u09bc": 3140,
  "\u2581\u09b9\u09c7\u0987": 3141,
  "\u2581First": 3142,
  "\u2581\u09b0\u0995\u09ae": 3143,
  "\u2581art": 3144,
  "\u2581daughter": 3145,
  "\u2581perhaps": 3146,
  "\u2581dialog": 3147,
  "\u098f\u0987": 3148,
  "\u2581\u099f\u09cd\u09b0\u09cd\u09af\u09be\u0995": 3149,
  "\u2581\u09a1\u09bf\u09b8\u09aa\u09cd\u09b2\u09c7": 3150,
  "\u2581\u09ad\u09bf\u0989": 3151,
  "\u2581\u09b9\u09b0\u09a4\u09a8": 3152,
  "\u2581offer": 3153,
  "\u2581\u09ad\u09c7\u09a4\u09b0\u09c7": 3154,
  "\u2581interest": 3155,
  "\u2581\u09b9\u09af\u09bc\u09c7\u099b\u09c7\u09a8": 3156,
  "\u2581writing": 3157,
  "\u2581\u09aa\u09a1\u09bc\u09ac\u09c7": 3158,
  "\u2581\u09ac\u09be\u09b8\u09c0\u09a6\u09c7\u09b0": 3159,
  "\u2581elders": 3160,
  "\u2581showing": 3161,
  "\u2581voice": 3162,
  "\u2581\u099a\u09bf\u09a4": 3163,
  "\u2581\u099a\u09bf\u09b0\u0995\u09be\u09b2": 3164,
  "\u2581\u09ae\u09a8\u09cd\u09a6": 3165,
  "\u2581almost": 3166,
  "\u2581mountains": 3167,
  "\u2581\u099c\u09af\u09bc": 3168,
  "\u2581\u09aa\u09c1\u09b0\u09cb\u09a8\u09cb": 3169,
  "\u2581\u09aa\u09c2\u09b0\u09a3": 3170,
  "\u2581True": 3171,
  "\u2581actually": 3172,
  "\u2581\u0985\u09ac\u09b6\u09cd\u09af": 3173,
  "\u2581\u201d?": 3174,
  "\u2581\u0985\u0982\u09b6\u09c7": 3175,
  "\u2581\u099a\u09b2\u09c1\u09a8": 3176,
  "\u2581\u09a8\u09bf\u0989": 3177,
  "\u2581\u09a7\u09bf": 3178,
  "\u2581\u09a8\u09bf\u099c\u09b8\u09cd\u09ac": 3179,
  "\u2581Table": 3180,
  "\u2581till": 3181,
  "\u2581\u0985\u09a7\u09bf\u0995\u09be\u0982\u09b6": 3182,
  "\u2581\u09b0\u09c1": 3183,
  "\u2581entire": 3184,
  "\u2581\u09a8\u09bf\u09af\u09bc\u09c7\u099b\u09c7": 3185,
  "\u2581takes": 3186,
  "\u2581\u0995\u09b0\u09bf\u09a8\u09cd\u09a5\u09c0\u09af\u09bc": 3187,
  "\u2581common": 3188,
  "\u2581Y": 3189,
  "\u2581cut": 3190,
  "\u2581\u098f\u0996\u09be\u09a8": 3191,
  "\u2581\u099c\u09a8\u09cd\u09ae": 3192,
  "name": 3193,
  "\u2581Messengers": 3194,
  "\u2581recent": 3195,
  "\u2581removed": 3196,
  "\u2581Which": 3197,
  "\u2581alive": 3198,
  "\u2581\u09ad\u09c1\u0995": 3199,
  "\u2581\u0997\u09c1\u09b0\u09c1\u09a4\u09b0": 3200,
  "\u2581\u09b8\u09c1\u09b8\u0982\u0997\u09a4": 3201,
  "\u0989": 3202,
  "\u2581\u0993\u0996\u09be\u09a8\u09c7": 3203,
  "\u2581\u09a5\u09a8\u09be": 3204,
  "\u25818": 3205,
  "\u2581\u09ac\u09be\u099c\u09be\u09a8\u09cb": 3206,
  "\u2581\u09b8\u09c7\u0987\u09a6\u09bf\u09a8": 3207,
  "\u09ac\u09cb\u09b0\u09cd\u09a1": 3208,
  "\u2581Creator": 3209,
  "\u2581\u099b": 3210,
  "\u2581\u09a6\u09be\u09b8": 3211,
  "\u2581\u09ac\u09b8\u09cd\u09a4\u09c1\u09b0": 3212,
  "\u2581chastisement": 3213,
  "\u2581Custom": 3214,
  "\u2581notes": 3215,
  "\u2581Run": 3216,
  "\u2581correctly": 3217,
  "\u2581perfect": 3218,
  "\u2581\u09ab\u09bf\u09b2\u09cd\u099f\u09be\u09b0": 3219,
  "\u099c\u09be": 3220,
  "\u2581door": 3221,
  "\u2581\u09a6\u09c7\u0987": 3222,
  "\u2581\u09a1\u0995\u09c1\u09ae\u09c7\u09a8\u09cd\u099f": 3223,
  "\u2581terminal": 3224,
  "\u2581\u099c\u0997\u09a4\u09c7\u09b0": 3225,
  "\u2581\u09b0\u09be\u09a4\u09c7": 3226,
  "\u2581\u09b9\u0987\u09ac\u09c7": 3227,
  "\u09e7": 3228,
  "\u2581\u0995\u09a5\u09be\u0997\u09c1\u09b2\u09cb": 3229,
  "\u2581\u09aa\u09c1\u09b0\u09b8": 3230,
  "\u09ae\u09bf": 3231,
  "\u2581phone": 3232,
  "\u2581\u09ac\u09bf": 3233,
  "\u2581decided": 3234,
  "\u2581waiting": 3235,
  "na": 3236,
  "\u099c\u09a8": 3237,
  "\u2581cast": 3238,
  "\u2581Location": 3239,
  "\u2581\u09b0\u09be\u0996\u09cb": 3240,
  "\u2581US": 3241,
  "\u2581\u09aa\u09cd\u09b0\u09a4\u09bf\u099f\u09bf": 3242,
  "\u2581goes": 3243,
  "\u2581\u0986\u0989\u099f\u09aa\u09c1\u099f": 3244,
  "..": 3245,
  "\u2581filter": 3246,
  "\u2581showed": 3247,
  "\u2581verses": 3248,
  "\u2581\u0996\u09c1\u09b2\u09c7": 3249,
  "\u2581Header": 3250,
  "\u2581photo": 3251,
  "\u2581\u0985\u09ac\u09b8\u09cd\u09a5\u09be\u09a8\u09c7": 3252,
  "\u2581\u09ac\u09cd\u09b2\u0995": 3253,
  "\u2581\u09af\u09bf\u09b6\u09be\u0987\u09af\u09bc": 3254,
  "\u2581Truth": 3255,
  "\u2581press": 3256,
  "\u2581store": 3257,
  "\u2581Call": 3258,
  "\u2581About": 3259,
  "\u2581El": 3260,
  "\u2581\u0985\u099e\u09cd\u099a\u09b2": 3261,
  "\u2581\u0985\u09b0\u09cd\u09a5\u09be\u09ce": 3262,
  "\u2581\u09aa\u09cd\u09b0\u09a4\u09bf\u09b8\u09cd\u09a5\u09be\u09aa\u09a8": 3263,
  "\u25819": 3264,
  "\u2581\u0997\u09a4\u09bf": 3265,
  "\u2581\u09ac\u09b0\u09be\u09a6\u09cd\u09a6": 3266,
  "\u2581\u09b8\u09ae\u09be\u09aa\u09cd\u09a4": 3267,
  "\u2581\u09a8\u09be\u09b0\u09c0\u09a6\u09c7\u09b0": 3268,
  "\u2581\u09ae\u09c7\u09ae\u09b0\u09bf": 3269,
  "\u2581half": 3270,
  "\u2581\u09a6\u09c7\u09af\u09bc\u09be\u09b0": 3271,
  "\u2581\u09ae\u09b9\u09be": 3272,
  "\u2581\u09b8\u09bf\u09b8\u09cd\u099f\u09c7\u09ae\u09c7\u09b0": 3273,
  "\u0982": 3274,
  "\u2581Authentication": 3275,
  "\u2581campaign": 3276,
  "\u2581taste": 3277,
  "\u2581attack": 3278,
  "\u2581\u0985\u0997": 3279,
  "ce": 3280,
  "\u2581inspired": 3281,
  "\u2581\u09b9\u09af\u09bc\u09a4": 3282,
  "\u2581\u0989\u09aa\u09af\u09c1\u0995\u09cd\u09a4": 3283,
  "\u2581\u0989\u09aa\u09b8": 3284,
  "\u2581enemy": 3285,
  "\u2581\u09b8\u09b0\u09cd\u09ac\u09a6\u09be": 3286,
  "\u09b9\u09c0\u09a8": 3287,
  "\u2581\u098f\u09b0\u0995\u09ae": 3288,
  "\u0995\u09cb": 3289,
  "\u0997\u09c1\u09b2\u09cb\u09a4\u09c7": 3290,
  "\u2581grow": 3291,
  "\u2581\u0986\u09b9": 3292,
  "ro": 3293,
  "\u2581rain": 3294,
  "ri": 3295,
  "\u0997\u09a3": 3296,
  "\u2581Indian": 3297,
  "\u2581asking": 3298,
  "\u2581increase": 3299,
  "\u2581languages": 3300,
  "\u2581gods": 3301,
  "\u2581\u09ae\u09be\u099f\u09bf": 3302,
  "\u2581output": 3303,
  "\u2581\u0995\u09cb\u09b0\u0986\u09a8": 3304,
  "\u2581\u099c\u09cb\u09b0": 3305,
  "ach": 3306,
  "\u2581Current": 3307,
  "\u2581\u0985\u09a8\u09c1\u09ad\u09ac": 3308,
  "\u2581\u098f\u09b8\u09c7\u099b\u09bf": 3309,
  "\u2581\u09aa\u09cd\u09b0\u09be\u09b0\u09ae\u09cd\u09ad\u09bf\u0995": 3310,
  "\u2581\u09ac\u09be\u09b0\u09cd\u09a4\u09be\u0997\u09c1\u09b2\u09bf": 3311,
  "\u2581\u09b2\u09be\u0997\u09ac\u09c7": 3312,
  "\u2581\u09b0\u09af\u09bc\u09c7\u099b\u09c7\u09a8": 3313,
  "\u2581sacrifice": 3314,
  "\u09ad\u09bf": 3315,
  "\u2581\u0995\u0996\u09a8": 3316,
  "\u2581\u09aa\u09cd\u09b0\u09a4\u09cd\u09af\u09be\u09b6\u09bf\u09a4": 3317,
  "\u2581\u09af\u09be\u0995": 3318,
  "\u2581\u09b7\u09c0": 3319,
  "\u2581Isaiah": 3320,
  "\u2581fathers": 3321,
  "\u2581\u0986\u0987\u099f\u09c7\u09ae": 3322,
  "\u2581prepared": 3323,
  "\u2581\u0986\u09b6\u09c0\u09b0\u09cd\u09ac\u09be\u09a6": 3324,
  "\u2581\u09b6\u09c1\u09a8\u09c7": 3325,
  "\u2581build": 3326,
  "\u2581unjust": 3327,
  "\u2581isn": 3328,
  "\u2581per": 3329,
  "\u2581\u09a6\u09be\u09af\u09bc\u09c2\u09a6": 3330,
  "\u099b": 3331,
  "\u2581\u0995\u09bf\u099b\u09c1\u099f\u09be": 3332,
  "\u2581\u09b8\u09c1\u09b8\u0982\u09ac\u09be\u09a6": 3333,
  "\u09b8\u09a4\u09cd\u09af": 3334,
  "\u09be\u09a8": 3335,
  "\u2581\u09e8\u09ed": 3336,
  "\u2581\"{0}": 3337,
  "\u2581letter": 3338,
  "\u2581gain": 3339,
  "You": 3340,
  "of": 3341,
  "\u2581..": 3342,
  "\u2581busy": 3343,
  "\u2581successfully": 3344,
  "\u2581toolbar": 3345,
  "\u2581period": 3346,
  "\u2581\u09ac\u09cd\u09b0\u09be\u0989\u099c": 3347,
  "\u2581involved": 3348,
  "\u2581\u0989\u09a0\u09c7": 3349,
  "\u2581beyond": 3350,
  "\u2581\u0986\u09b6": 3351,
  "\u2581feelings": 3352,
  "\u2581heavenly": 3353,
  "\u2581\u09aa\u09cd\u09b0\u09a4\u09cd\u09af\u09c7\u0995": 3354,
  "\u2581\u09b9\u09c7\u09a1\u09be\u09b0": 3355,
  "\u2581\u0985\u09aa\u09cd\u09b0\u09af\u09bc\u09cb\u099c\u09a8\u09c0\u09af\u09bc": 3356,
  "\u2581homes": 3357,
  "\u2581powerful": 3358,
  "\u09a8\u09cb": 3359,
  "\u2581Contacts": 3360,
  "\u2581\u09ac\u09be\u09a1\u09bc\u09bf\u09a4\u09c7": 3361,
  "\u2581\u09ae\u09c1\u0995": 3362,
  "\u2581\u09b8\u09ae\u09b8\u09cd\u09af\u09be\u09b0": 3363,
  "\u2581\u0995\u09b7\u09cd\u099f": 3364,
  "\u2581Task": 3365,
  "\u2581\u0985\u09a8\u09c1\u0997\u09a4": 3366,
  "\u2581\u0986\u09b8\u09b2": 3367,
  "\u2581\u09e8\u09ef": 3368,
  "\u2581calling": 3369,
  "\u2581contain": 3370,
  "\u2581\u0986\u09b0\u09c7\u0995\u099f\u09be": 3371,
  "\u2581\u09ad\u09cb\u099f": 3372,
  "\u2581\u09b8\u09a8\u09cd\u09a6\u09c7\u09b9": 3373,
  "\u2581\u0985\u09ab\u09b2\u09be\u0987\u09a8": 3374,
  "\u2581\u0997\u09b0": 3375,
  "\u2581\u09b0\u0999\u09c7\u09b0": 3376,
  "\u2581sisters": 3377,
  "\u2581States": 3378,
  "\u2581\u09b6\u09ac\u09cd\u09a6\u09c7\u09b0": 3379,
  "\u2581Disable": 3380,
  "\u2581focus": 3381,
  "\u2581permissions": 3382,
  "X": 3383,
  "\u2581entry": 3384,
  "\u2581\u09aa\u09a6\u09c7": 3385,
  "\u2581Great": 3386,
  "\u2581Wait": 3387,
  "\u2581beautiful": 3388,
  "\u2581\u0995\u09be\u09b2\u09cb": 3389,
  "\u2581\u09b8\u099e\u09cd\u099a\u09be\u09b2\u09a8": 3390,
  "\u2581width": 3391,
  "\u2581\u09a6\u09c1\u0983\u0996": 3392,
  "\u2581\u09a6\u09c3\u09a2\u09bc": 3393,
  "\u2581individuals": 3394,
  "\u2581saving": 3395,
  "\u2581\u09b8\u09ab\u09b2": 3396,
  "\u2581Messages": 3397,
  "\u2581brings": 3398,
  "\u2581\u0989\u09aa\u09b2\u09ac\u09cd\u09a7\u09bf": 3399,
  "\u2581\u09a6\u09c7\u09b9\u09c7": 3400,
  "\u2581\u09aa\u09a6\u0995\u09cd\u09b7\u09c7\u09aa": 3401,
  "\u2581feet": 3402,
  "\u2581\u09b8\u09b0\u09c7": 3403,
  "\u2581\u09ae\u09c1\u09ae\u09bf\u09a8": 3404,
  "\u2581\u0995\u09a4\u0987": 3405,
  "\u2581secret": 3406,
  "\u2581\u09b8\u09be\u09ae\u09cd\u09aa\u09cd\u09b0\u09a4\u09bf\u0995": 3407,
  "\u2581\u09b9\u09be\u09b2\u09a8\u09be\u0997\u09be\u09a6": 3408,
  "\u2581Document": 3409,
  "\u2581earlier": 3410,
  "\u2581gift": 3411,
  "\u2581\u099c\u09bf": 3412,
  "\u2581\u09b8\u0995\u09cd\u09b7\u09ae": 3413,
  "\u266a": 3414,
  "\u2581Had": 3415,
  "\u2581\u0985\u09a8\u09c1\u09b7\u09cd\u09a0\u09be\u09a8": 3416,
  "\u2581\u0995\u09be\u09b0\u09be": 3417,
  "\u2581\u0986\u09ae\u09a8\u09cd\u09a4\u09cd\u09b0\u09a3": 3418,
  "\u2581\u0995\u0996\u09a8\u09cb\u0987": 3419,
  "\u2581\u09a8\u09bf\u09b0\u09cd\u09a6\u09c7\u09b6\u09a8\u09be": 3420,
  "\u2581\u09ac\u09bf\u09a7\u09be\u09a8": 3421,
  "\u2581quit": 3422,
  "\u2581\u09ac\u0987\u09af\u09bc\u09c7\u09b0": 3423,
  "\u2581\u09b8\u09c7\u099f\u09be\u09b0": 3424,
  "\u2581\u099a": 3425,
  "\u2581\u09b9\u09be": 3426,
  "\u2581lived": 3427,
  "\u2581shared": 3428,
  "\u2581photos": 3429,
  "\u2581recently": 3430,
  "\u2581Proverbs": 3431,
  "\u2581plan": 3432,
  "\u2581simply": 3433,
  "\u2581box": 3434,
  "\u2581\u09a6\u09b0": 3435,
  "\u2581\u09b2\u09bf\u0999\u09cd\u0995": 3436,
  "\u2581lock": 3437,
  "\u2581protest": 3438,
  "\u2581\u09aa\u09b0\u09b8": 3439,
  "\u2581Help": 3440,
  "\u2581faces": 3441,
  "\u2581\u099c\u09be\u09a4\u09bf\u09b0": 3442,
  "\u2581\u09b8\u09a4\u09b0\u09cd\u0995": 3443,
  "\u2581attitude": 3444,
  "\u2581moving": 3445,
  "\u2581parts": 3446,
  "\u2581spread": 3447,
  "\u2581\u0986\u09ac\u09b9\u09be\u0993\u09af\u09bc\u09be": 3448,
  "\u2581Thou": 3449,
  "\u2581package": 3450,
  "tar": 3451,
  "\u2581business": 3452,
  "\u2581title": 3453,
  "\u2581\u0989\u09aa\u09be\u09af\u09bc\u09c7": 3454,
  "\u2581\u0995\u09be\u09af\u09bc\u09c7\u09ae": 3455,
  "\u2581\u09af\u09cc\u09a5": 3456,
  "\u2581Account": 3457,
  "\u2581Two": 3458,
  "\u2581rejected": 3459,
  "\u2581argument": 3460,
  "\u2581existing": 3461,
  "\u2581ground": 3462,
  "\u2581seconds": 3463,
  "\u2581\u0985\u09ac\u09a4\u09be\u09b0\u09a3": 3464,
  "\u2581\u0995\u09a8": 3465,
  "\u2581\u0997\u09cd\u09b0\u09c1\u09aa": 3466,
  "\u2581serious": 3467,
  "\u2581\u09ac\u09c7\u09b0\u09bf\u09af\u09bc\u09c7": 3468,
  "\u2581\u09aa\u0982\u0995\u09cd\u09a4\u09bf": 3469,
  "\u2581\u09aa\u09cd\u09b0\u09be\u09af\u09bc\u0987": 3470,
  "\u2581\u09ac\u09b2\u09ac\u09c7\u09a8": 3471,
  "\u09af\u09bc\u09c7\u09b0": 3472,
  "\u2581\u09b0\u09be\u09b7\u09cd\u099f\u09cd\u09b0\u09aa\u09a4\u09bf": 3473,
  "\u2581class": 3474,
  "\u2581clean": 3475,
  "type": 3476,
  "\u2581Children": 3477,
  "\u2581\u098f\u099f\u09be\u09b0": 3478,
  "\u2581afraid": 3479,
  "\u2581\u09a4\u09be\u0981\u09b9\u09be\u09b0": 3480,
  "\u2581record": 3481,
  "\u2581\u09aa\u09cd\u09b0\u09a4\u09bf\u09ac\u09be\u09a6": 3482,
  "\u2581\u09b8\u09a8\u09cd\u09a4\u09be\u09a8": 3483,
  "\u2581\u09b8\u09c1\u09a8\u09bf\u09b0\u09cd\u09a6\u09bf\u09b7\u09cd\u099f": 3484,
  "\u2581m": 3485,
  "\u2581Man": 3486,
  "\u2581\u09b8\u09cd\u0995\u09cb\u09b0": 3487,
  "\u2581\u09e9\u09e7": 3488,
  "\u2581System": 3489,
  "\u2581\u09a8\u09bf\u099c\u09c7\u09b0\u09be\u0987": 3490,
  "\u2581\u09a8\u09c2\u09b9": 3491,
  "0": 3492,
  "Edit": 3493,
  "\u2581HTTP": 3494,
  "\u2581Un": 3495,
  "\u2581presence": 3496,
  "as": 3497,
  "\u2581picture": 3498,
  "\u2581\u098f\u09ac\u09be\u09b0": 3499,
  "\u2581\u098f\u09a8\u09c7\u099b": 3500,
  "\u2581join": 3501,
  "\u2581SAW": 3502,
  "\u2581force": 3503,
  "\u2581speed": 3504,
  "\u2581\u09ac\u09be\u099f\u09a8": 3505,
  "\u2581\u09b8\u09be\u09b2": 3506,
  "\u09be\u09af\u09bc": 3507,
  "\u2581http": 3508,
  "\u2581\u09a7\u09c0\u09b0\u09c7": 3509,
  "All": 3510,
  "\u2581China": 3511,
  "\u2581Consider": 3512,
  "\u2581Settings": 3513,
  "\u2581reached": 3514,
  "\u2581equal": 3515,
  "\u2581\u09ac\u09bf\u09a8\u09bf\u09ae\u09af\u09bc": 3516,
  "\u2581instance": 3517,
  "\u2581Hebrew": 3518,
  "\u2581automatically": 3519,
  "\u09be\u09b2": 3520,
  "\u2581\u09b8\u09be\u09a7\u09be\u09b0\u09a3\u09a4": 3521,
  "\u2581ahead": 3522,
  "\u2581\u0989\u09a6\u09be\u09b9\u09b0\u09a3\u09b8\u09cd\u09ac\u09b0\u09c2\u09aa": 3523,
  "\u2581\u09a5\u09be": 3524,
  "\u2581\u09aa\u09cd\u09b2\u09bf\u099c": 3525,
  "\u2581slot": 3526,
  "\u2581\u0985\u09a8\u09c1\u0995\u09b0\u09a3": 3527,
  "\u2581\u09b8\u09be\u09ac\u09a7\u09be\u09a8": 3528,
  "\u2581standard": 3529,
  "\u2581\u0995\u09c3\u09a4\u099c": 3530,
  "\u2581straight": 3531,
  "\u2581\u0988\u09b6\u09cd\u09ac\u09b0\u0995\u09c7": 3532,
  "\u2581description": 3533,
  "\u2581destroy": 3534,
  "\u2581\u0986\u0997\u09ae\u09a8": 3535,
  "\u2581\u09b6\u09c7\u09af\u09bc\u09be\u09b0": 3536,
  "j": 3537,
  "\u2581raise": 3538,
  "\u2581Out": 3539,
  "\u2581low": 3540,
  "\u2581\u09af\u09be\u099a\u09be\u0987": 3541,
  "\u2581born": 3542,
  "\u2581subject": 3543,
  "\u2581Video": 3544,
  "\u2581carry": 3545,
  "\u2581couple": 3546,
  "\u2581placed": 3547,
  "\u2581\u09aa\u09b0\u09be\u0995": 3548,
  "\u2581Bangladesh": 3549,
  "go": 3550,
  "\u2581assigned": 3551,
  "\u2581\u09aa\u09be\u09b0\u09c7\u09a8\u09bf": 3552,
  "\u2581firm": 3553,
  "\u2581\u0989\u09ce\u09aa\u09a8\u09cd\u09a8": 3554,
  "\u2581\u099a\u09b2\u09ae\u09be\u09a8": 3555,
  "\u2581\u09a1\u09b2\u09c7": 3556,
  "\u09aa\u09cd\u09b0": 3557,
  "\u2581lines": 3558,
  "\u2581\u09aa\u09cd\u09b0\u099a\u09c1\u09b0": 3559,
  "\u2581\u09ab\u09c7\u09b8\u09ac\u09c1\u0995": 3560,
  "\u2581\u09b7\u09c7\u09aa": 3561,
  "less": 3562,
  "\u2581click": 3563,
  "\u2581\u0985\u09a8\u09cd\u09a4\u09a4": 3564,
  "\u2581\u09a7\u09b0\u09cd\u09ae": 3565,
  "\u2581\u09aa\u09b0\u09bf\u0995\u09b2\u09cd\u09aa\u09a8\u09be": 3566,
  "\u2581\u09b0\u09be\u09b8\u09cd\u09a4\u09be": 3567,
  "\u2581browser": 3568,
  "\u2581provision": 3569,
  "\u2581seeking": 3570,
  "\u2581\u098f\u09a1\u09bc\u09bf\u09af\u09bc\u09c7": 3571,
  "\u2581eight": 3572,
  "\u2581\u09ac\u09b8\u09ac\u09be\u09b8": 3573,
  "\u09a8\u09bf\u0983\u09b8\u09a8\u09cd\u09a6\u09c7\u09b9": 3574,
  "\u2581Try": 3575,
  "\u2581building": 3576,
  "\u2581\u0985\u09b2\u09cd\u09aa": 3577,
  "\u2581\u09ad\u09be\u09b7\u09be\u09b0": 3578,
  "\u2581Another": 3579,
  "\u2581\u09aa\u09a1\u09bc\u09c7\u099b\u09c7": 3580,
  "\u2581\u09ab\u09cb\u09b2\u09cd\u09a1\u09be\u09b0\u099f\u09bf": 3581,
  "\u2581efforts": 3582,
  "\u2581\u098f\u09b2\u09be\u0995\u09be\u09af\u09bc": 3583,
  "\u2581\u09b2\u09be\u0997\u09c7": 3584,
  "\u2581Wise": 3585,
  "\u2581\u0997\u09ad\u09c0\u09b0": 3586,
  "\u2581\u0995\u09be\u09a8": 3587,
  "\u2581\u099f\u09be\u09a8": 3588,
  "\u2581\u0989\u09ad\u09af\u09bc\u09c7": 3589,
  "\u2581\u09a6\u09cb\u09b7": 3590,
  "\u2581\u09e6": 3591,
  "\u2581\u09a4\u09bf\u09b6\u09be\u09b2\u09c0": 3592,
  "\u2581\u09b6\u09c0\u0998\u09cd\u09b0\u0987": 3593,
  "\u2581\u09a8\u09bf\u09b7\u09c7\u09a7": 3594,
  "\u2581\u09ac\u09bf\u09b0\u09a4\u09bf": 3595,
  "7": 3596,
  "\u2581entered": 3597,
  "\u2581\u0985\u09a8\u09c1\u09b7\u09cd\u09a0\u09bf\u09a4": 3598,
  "\u2581rivers": 3599,
  "\u0997\u09a4": 3600,
  "\u258114": 3601,
  "\u2581\u0985\u09aa\u09cd\u09b0\u09a4\u09cd\u09af\u09be\u09b6\u09bf\u09a4": 3602,
  "\u0986\u09b2\u09cd\u09b2\u09be\u09b9\u09cd": 3603,
  "\u2581\u0986\u0995\u09cd\u09b0\u09ae\u09a3": 3604,
  "\u2581happiness": 3605,
  "\u2581\u09b0\u09c7\u09b7": 3606,
  "\u2581\u0995\u09bf\u09af\u09bc\u09be\u09ae\u09a4": 3607,
  "Open": 3608,
  "\u099f\u09bf\u0995\u09c7": 3609,
  "\u2581books": 3610,
  "\u2581dear": 3611,
  "\u2581severe": 3612,
  "\u2581KDE": 3613,
  "\u2581older": 3614,
  "\u2581City": 3615,
  "\u2581guy": 3616,
  "Add": 3617,
  "\u2581g": 3618,
  "\u2581\u0985\u09ab\u09c1\u09b0\u09a8": 3619,
  "\u2581\u099a\u0995": 3620,
  "\u2581\u09b0\u09a4\u09bf\u09b7": 3621,
  "\u2581Page": 3622,
  "\u2581\u0995\u09b0\u09c7\u0987": 3623,
  "\u2581leaders": 3624,
  "\u2581\u09ac\u09cb\u09a8": 3625,
  "\u2581\u09b8\u0982\u0995\u09cd\u09b7\u09bf\u09aa\u09cd\u09a4": 3626,
  "\u2581\u09ac\u09be\u0995\u09bf": 3627,
  "\u2581\u099a\u09c0\u09a8\u09be": 3628,
  "\u2581\u09a4\u09be\u09a1\u09bc\u09be\u09a4\u09be\u09a1\u09bc\u09bf": 3629,
  "\u2581military": 3630,
  "\u2581\u0986\u09b2\u09be": 3631,
  "\u2581\u0987\u0989": 3632,
  "\u2581\u09ae\u09be\u0989\u09b8": 3633,
  "\u2581President": 3634,
  "\u2581deep": 3635,
  "\u2581limit": 3636,
  "\u2581\u09b0\u09c0": 3637,
  "\u2581\u09b8\u0982\u09af\u09cb\u099c\u09a8": 3638,
  "\u2581\u09a4\u09be\u09b0\u09be\u0993": 3639,
  "\u2581\u09a5\u09c0\u09ae": 3640,
  "\u2581\u09ac\u09be\u09a1\u09bc\u09bf\u09af\u09bc\u09c7": 3641,
  "\u2581progress": 3642,
  "\u2581aware": 3643,
  "\u2581thanks": 3644,
  "\u2581\u09ac\u09be\u099b\u09be\u0987": 3645,
  "\u2581\u09b7\u09c7": 3646,
  "\u2581Luke": 3647,
  "\u2581Peace": 3648,
  "\u2581\u09aa\u09cc\u0981\u099b\u09c7": 3649,
  "\u09ae\u09c2\u09b2\u0995": 3650,
  "\u2581clipboard": 3651,
  "\u2581\u09aa\u09b0\u09c0\u0995": 3652,
  "ent": 3653,
  "\u2581\u09a5\u09be\u0995\u09a4": 3654,
  "ah": 3655,
  "ist": 3656,
  "\u2581loved": 3657,
  "\u2581\u09ac\u09bf\u09ab\u09b2": 3658,
  "\u2581\u09ad\u09af\u09bc\u09c7\u09b8\u09c7\u09b8": 3659,
  "\u2581c": 3660,
  "\u2581\u0985\u09a7\u09bf\u0995\u09be\u0982\u09b6\u0987": 3661,
  "\u2581\u09ae\u09be\u09b8\u09c7\u09b0": 3662,
  "\u2581Rather": 3663,
  "\u2581print": 3664,
  "\u2581\u09ac\u09cd\u09af\u09ac\u09b8\u09cd\u09a5\u09be\u09b0": 3665,
  "\u2581Properties": 3666,
  "\u2581\u099c\u09be\u09a8\u09bf\u09af\u09bc\u09c7": 3667,
  "\u2581\u0995\u09cd\u09b7\u09c7\u09a4\u09cd\u09b0\u09c7\u09b0": 3668,
  "\u2581\u09a4\u09c1\u09b2\u09a8\u09be": 3669,
  "\u2581\u09b0\u0987": 3670,
  "\u2581\u098f\u09a8\u0995\u09cd\u09b0\u09bf\u09aa\u09b6\u09a8": 3671,
  "\u2581\u09ac\u09cd\u09b2\u0997\u09c7": 3672,
  "ive": 3673,
  "\u2581completed": 3674,
  "\u2581honor": 3675,
  "\u2581\u0995\u09b8\u09ae": 3676,
  "\u2581\u09ae\u09b9\u09bf\u09b2\u09be": 3677,
  "\u2581\u09b0\u0995\u09cd\u09a4": 3678,
  "\u2581trial": 3679,
  "\u2581Timothy": 3680,
  "\u2581parent": 3681,
  "\u2581role": 3682,
  "\u2581\u09a6\u09af\u09bc\u09be\u09b2\u09c1": 3683,
  "\u2581\u09aa\u09c7\u09af\u09bc\u09c7\u099b\u09c7": 3684,
  "\u2581resurrection": 3685,
  "\u2581Color": 3686,
  "\u2581warn": 3687,
  "\u2581\u09ac\u09be\u0997": 3688,
  "\u2581effort": 3689,
  "\u2581wonderful": 3690,
  "\u2581\u0995\u09bf\u099b\u09c1\u09b0": 3691,
  "\u2581direction": 3692,
  "\u2581\u09af\u0995\u09be\u09b0\u09c0": 3693,
  "ever": 3694,
  "\u2581Unto": 3695,
  "\u2581\u0986\u09b0\u09cb\u09aa": 3696,
  "\u2581High": 3697,
  "\u2581\u0985\u09b0\u09cd\u099c\u09a8": 3698,
  "ies": 3699,
  "\u2581Data": 3700,
  "\u2581flow": 3701,
  "\u2581requires": 3702,
  "\u2581\u09aa\u09c1\u09a4": 3703,
  "\u2581\u09b2\u09be": 3704,
  "\u2581\u09ac\u09bf\u09b8": 3705,
  "Save": 3706,
  "\u2581\u0989\u09ad\u09af\u09bc": 3707,
  "\u2581\u09b0\u09be": 3708,
  "\u2581\u09b8\u09ae\u09c2\u09b9": 3709,
  "\u2581\u098f\u099f\u09bf\u0995\u09c7": 3710,
  "\u2581\u09a1\u09be\u09af\u09bc\u09b2\u0997": 3711,
  "\u2581\u09aa\u09cd\u09b0\u09bf\u09af\u09bc": 3712,
  "\u2581\u09b0\u09c2\u09aa\u09be\u09a8\u09cd\u09a4\u09b0": 3713,
  "\u2581CMS": 3714,
  "\u2581established": 3715,
  "\u2581\u09a8\u09b7\u09cd\u099f": 3716,
  "\u2581\u09b0\u099c": 3717,
  "\u09c7\u09b0\u09be": 3718,
  "\u2581\u09a5\u09b2": 3719,
  "\u2581associate": 3720,
  "\u2581\u09a5\u09cd\u09b0\u09c7\u09a1": 3721,
  "\u2581\u09b8\u09be\u0982\u09ac\u09be\u09a6\u09bf\u0995": 3722,
  "\u2581J": 3723,
  "\u2581clearly": 3724,
  "\u2581\u0985\u09cd\u09af\u09be": 3725,
  "\u2581army": 3726,
  "\u2581blind": 3727,
  "\u2581hurt": 3728,
  "\u2581\u0997\u09c0\u09a4": 3729,
  "\u2581\u09a7\u09c1": 3730,
  "\u2581\u09ac\u09bf\u0995\u09cd\u09b7\u09cb\u09ad": 3731,
  "\u2581\u09ac\u09cd\u09b0\u09be\u09b8\u09c7\u09b0\u09cb": 3732,
  "\u2581company": 3733,
  "\u2581\u09aa\u09cd\u09b0\u09a4\u09cd\u09af\u09c1\u09a4\u09cd\u09a4\u09b0": 3734,
  "\u2581\u09b8\u0995\u09b2\u09c7\u09b0": 3735,
  "\u2581\u0986\u09b0\u09c7": 3736,
  "\u2581\u0995\u09c7\u099f\u09c7": 3737,
  "\u2581\u09b6\u09a4\u09be\u0982\u09b6": 3738,
  "\u2581Command": 3739,
  "\u2581messengers": 3740,
  "pe": 3741,
  "\u2581Link": 3742,
  "\u2581St": 3743,
  "\u2581bookmarks": 3744,
  "\u2581missing": 3745,
  "\u2581\u0985\u09cd\u09af\u09be\u09a8\u09bf\u09ae\u09c7\u09b6\u09a8": 3746,
  "\u2581\u09af\u09c7\u09a4": 3747,
  "\u258116": 3748,
  "\u2581families": 3749,
  "\u2581\u099c\u09bf\u09a8\u09cb\u09ae": 3750,
  "ir": 3751,
  "rs": 3752,
  "\u2581\u09ae\u09b9\u09bf\u09ae\u09be": 3753,
  "\u2581\u09b2\u09bf\u0996\u09c7": 3754,
  "\u2581blessed": 3755,
  "\u2581During": 3756,
  "\u2581\u0986\u09b9\u09cd\u09ac\u09be\u09a8": 3757,
  "\u2581\u09aa\u09cd\u09b0\u09af\u09cb\u099c\u09cd\u09af": 3758,
  "\u2581\u09b0\u09a6\u09be\u09a8": 3759,
  "\u2581blessing": 3760,
  "\u2581destination": 3761,
  "\u2581\u09a6\u09c7\u0996\u09c7\u099b\u09bf": 3762,
  "\u2581suffer": 3763,
  "\u2581\u09aa\u09be\u09ac\u09c7\u09a8": 3764,
  "\u2581March": 3765,
  "\u09af\u09bc\u09be": 3766,
  "\u2581include": 3767,
  "\u2581\u0989\u09b2\u09cd\u09b2\u09c7\u0996\u09bf\u09a4": 3768,
  "View": 3769,
  "\u2581measure": 3770,
  "\u2581\u09aa\u09be\u09b0\u09ac\u09cb": 3771,
  "\u2581\u09ac\u09bf\u09a6": 3772,
  "ISO": 3773,
  "\u2581enemies": 3774,
  "\u2581\u09a6\u09c7\u0996\u09be\u09a8": 3775,
  "\u2581\u09ae\u09c0\u09ae\u09be\u0982\u09b8\u09be": 3776,
  "\u2581\u09b8\u09b0\u09cd\u09ac": 3777,
  "\u2581lose": 3778,
  "\u2581proxy": 3779,
  "\u2581\u09b8\u09ab\u09cd\u099f\u0993\u09af\u09bc\u09cd\u09af\u09be\u09b0": 3780,
  "\u2581\u09b8\u09ae\u09cd\u09ad\u09be\u09ac\u09a8\u09be": 3781,
  "\u2581commanded": 3782,
  "\u2581Path": 3783,
  "\u2581\u09ab\u09b0\u09ae\u09cd\u09af\u09be\u099f": 3784,
  "\u2581\u09b8\u09a4\u09b0\u09cd\u0995\u09ac\u09be\u09b0\u09cd\u09a4\u09be": 3785,
  "\u2581\u09b8\u09cd\u09ac\u09be\u09ae\u09c0": 3786,
  "\u2581Bad": 3787,
  "\u2581cards": 3788,
  "\u2581guard": 3789,
  "\u2581thoughts": 3790,
  "\u2581\u09ac\u09cd\u09af\u09ac\u09b8\u09cd\u09a5\u09be\u09aa\u09a8\u09be": 3791,
  "\u2581gardens": 3792,
  "\u2581international": 3793,
  "\u2581\u09a6\u09c0\u09b0\u09cd\u0998": 3794,
  "\u2581match": 3795,
  "\u2581national": 3796,
  "\u2581\u09ac\u09bf\u09aa\u09a6": 3797,
  "\u09ac\u09b0\u09cd\u09a4\u09c0": 3798,
  "\u2581opposition": 3799,
  "\u2581\u09a4\u09b0\u09ab": 3800,
  "\u2581loading": 3801,
  "\u2581organization": 3802,
  "\u2581\u09a8\u09c0\u09a4\u09bf": 3803,
  "\\.": 3804,
  "\u2581\u09b8\u09be\u09a6\u09be": 3805,
  "\u2581\u0998\u09c3\u09a3\u09be": 3806,
  "\u2581\u09a1\u09b2\u09c0": 3807,
  "\u2581\u09b7\u09ae\u09be\u09b6\u09c0\u09b2": 3808,
  "\u200d": 3809,
  "\u2581property": 3810,
  "\u09af\u09c7": 3811,
  "\u2581baptized": 3812,
  "\u2581\u09b8\u09a8\u09cd\u09a4\u09be\u09a8\u09a6\u09c7\u09b0": 3813,
  "ja": 3814,
  "\u09aa\u09be": 3815,
  "\u2581\u0995\u09b0\u09c1\u09a3\u09be\u09ae\u09af\u09bc": 3816,
  "\u2581\u09aa\u09cd\u09b0\u09a4\u09bf\u09b0\u09cb\u09a7": 3817,
  "\u258119": 3818,
  "\u2581Loading": 3819,
  "\u2581Sir": 3820,
  "\u2581Should": 3821,
  "\u2581XDMCP": 3822,
  "\u2581\u09b9\u09cb\u09ae": 3823,
  "\u2581authorities": 3824,
  "\u2581team": 3825,
  "\u2581\u09a6\u0995\u09cd\u09b7\u09a4\u09be": 3826,
  "\u2581\u09b9\u09af\u09bc\u09c7\u099b\u09bf": 3827,
  "\u2581parse": 3828,
  "\u2581\u09ac\u09bf\u09b6\u09be\u09b2": 3829,
  "\u2581\u09ae\u09be\u09a8\u09ac\u09be\u09a7\u09bf\u0995\u09be\u09b0": 3830,
  "\u2581everlasting": 3831,
  "\u2581\u0995\u09b0\u09a4\u09cb": 3832,
  "\u2581\u0998\u099f\u09c7\u099b\u09c7": 3833,
  "\u2581\u09aa\u09b6": 3834,
  "\u2581\u09af\u09be\u0995\u09cb\u09ac": 3835,
  "\u0997\u09cb": 3836,
  "\u2581SSL": 3837,
  "\u2581evening": 3838,
  "\u2581\u098f\u0987\u09b8\u09ac": 3839,
  "\u2581\u09a4\u09c7\u09ae\u09a8": 3840,
  "\u2581\u09ae\u099c\u09be": 3841,
  "\u258113": 3842,
  "\u2581reply": 3843,
  "\u2581\u0995\u09cb\u09a8\u09cd": 3844,
  "\u2581documents": 3845,
  "\u2581final": 3846,
  "\u2581late": 3847,
  "\u2581necessary": 3848,
  "\u2581\u09a4\u0993\u09ac\u09be": 3849,
  "\u2581\u09aa\u09cd\u09b0\u09cb\u099f\u09cb\u0995\u09b2": 3850,
  "\u2581Email": 3851,
  "\u2581\u09a6\u09c7\u09b6\u09be\u09ac\u09b2\u09c0": 3852,
  "\u2581\u09aa\u09aa": 3853,
  "\u2581\u0986\u09a8\u09c7": 3854,
  "\u2581\u0989\u09a8\u09cd\u09a8\u09a4": 3855,
  "\u2581\u099c\u09be\u09a8\u09be\u09b0": 3856,
  "\u2581sort": 3857,
  "\u2581speaking": 3858,
  "\u2581\u098f\u0995\u09be": 3859,
  "\u2581\u09aa\u09a8": 3860,
  "\u2581sheep": 3861,
  "\u2581sounds": 3862,
  "\u0996": 3863,
  "\u2581THE": 3864,
  "\u2581favor": 3865,
  "\u2581glory": 3866,
  "\u2581third": 3867,
  "8": 3868,
  "\u09e8": 3869,
  "\u2581Background": 3870,
  "\u2581\u0995\u09b7": 3871,
  "\u2581\u09b2\u09c1\u0995\u09bf\u09af\u09bc\u09c7": 3872,
  "ne": 3873,
  "\u2581hit": 3874,
  "\u2581\u09ac\u09cd\u09af\u0995\u09cd\u09a4\u09bf\u09b0\u09be": 3875,
  "\u09a6\u09be": 3876,
  "\u2581comments": 3877,
  "\u2581\u098f\u09ae": 3878,
  "ism": 3879,
  "\u2581\u0985\u09ac\u09b6\u09c7\u09b7\u09c7": 3880,
  "\u2581\u09b8\u09ad\u09be\u09b0": 3881,
  "\u2581\u09a1\u0995": 3882,
  "\u2581simple": 3883,
  "\u2581\u0989\u09a8\u09cd\u09a8\u09a4\u09bf": 3884,
  "\u2581\u0995\u09cd\u09af\u09be\u09b6\u09c7": 3885,
  "\u2581lack": 3886,
  "\u09b2\u09c7\u09a8": 3887,
  "\u2581spoke": 3888,
  "\u2581tool": 3889,
  "\u2581\u0997\u09c3\u09b9": 3890,
  "\u2581\u09af\u09be\u09b0\u09cb\u09aa": 3891,
  "\u2581Before": 3892,
  "\u2581handle": 3893,
  "\u2581standing": 3894,
  "\u2581meaning": 3895,
  "\u2581\u0985\u09a7\u09bf\u0995\u09be\u09b0\u09c0": 3896,
  "\u2581black": 3897,
  "\u2581opportunity": 3898,
  "\u2581sit": 3899,
  "\u2581\u09aa\u09c1\u09a8\u09b0\u09be\u09ac\u09c3\u09a4\u09cd\u09a4\u09bf": 3900,
  "\u2581\u09aa\u09cd\u09af\u09be\u09a8\u09c7\u09b2": 3901,
  "\u2581Status": 3902,
  "\u2581bit": 3903,
  "\u2581temple": 3904,
  "\u2581tidings": 3905,
  "\u2581\u099c\u09be\u09a8\u09be\u09af\u09bc": 3906,
  "\u2581\u09b8\u09b9\u09be\u09af\u09bc\u09bf\u0995\u09be": 3907,
  "\u2581V": 3908,
  "\u2581material": 3909,
  "\u2581judgment": 3910,
  "\u2581original": 3911,
  "\u2581\u09af\u09a4\u09cd\u09a8": 3912,
  "--": 3913,
  "\u2581La": 3914,
  "\u2581\u09a6\u09b0\u099c\u09be": 3915,
  "\u2581\u09a8\u09be\u09a4\u09c7": 3916,
  "\u2581\u0985\u0999": 3917,
  "de": 3918,
  "\u2581Acts": 3919,
  "\u2581\u09a6\u09bf\u099a\u09cd\u099b\u09c7": 3920,
  "\u2581\u09b8\u09be\u09a8": 3921,
  "\u09ac\u09b0": 3922,
  "\u2581burn": 3923,
  "\u2581president": 3924,
  "\u2581\u0986\u09a6\u09bf\u09aa\u09c1\u09b8\u09cd\u09a4\u0995": 3925,
  "\u2581\u09aa\u09cd\u09b0\u09a4\u09bf\u099c\u09cd\u099e\u09be": 3926,
  "\u09aa\u09c2\u09b0\u09cd\u09a3": 3927,
  "\u2581flag": 3928,
  "\u2581\u09b0\u09be\u09b9\u09c0\u09ae": 3929,
  "\u2581\u09b8\u09c7\u0987\u09b8\u0999\u09cd\u0997\u09c7": 3930,
  "\u2581Keyboard": 3931,
  "\u2581GTK": 3932,
  "\u2581glad": 3933,
  "\u2581numbers": 3934,
  "\u25812.": 3935,
  "\u2581recipients": 3936,
  "\u2581thousands": 3937,
  "\u2581\u09b8\u09a8\u09cd\u09a8\u09bf\u09ac\u09c7\u09b6": 3938,
  "\u2581American": 3939,
  "\u2581Saudi": 3940,
  "\u2581eye": 3941,
  "\u2581provides": 3942,
  "\u2581souls": 3943,
  "\u2581unable": 3944,
  "\u2581Iran": 3945,
  "\u2581\u098f\u09b2\u09be\u0995\u09be": 3946,
  "\u2581\u09ac\u09be\u09b9\u09bf\u09a8\u09c0": 3947,
  "\u2581\u09ae\u09c2\u09b2\u09cd\u09af\u09ac\u09be\u09a8": 3948,
  "ton": 3949,
  "\u2581belong": 3950,
  "\u2581\u09a6\u09b0\u09c1\u09a8": 3951,
  "\u2581\u09b8\u09ae\u09cd\u09aa\u09cd\u09b0\u09a6\u09be\u09af\u09bc": 3952,
  "\u2581\u09aa\u09cd\u09b0\u09be\u09a8\u09cd\u09a4": 3953,
  "\u2581update": 3954,
  "\u2581\u09a4\u09c0\u09ae\u09a5\u09bf\u09af\u09bc": 3955,
  "\u2581\u09b8\u09cd\u09ac\u09a8\u09bf\u09b0\u09cd\u09ac\u09be\u099a\u09bf\u09a4": 3956,
  "all": 3957,
  "\u2581\u09ad\u09be\u09b0\u09a4\u09c0\u09af\u09bc": 3958,
  "\u2581express": 3959,
  "\u2581rich": 3960,
  "\u2581society": 3961,
  "\u2581\u099c\u09bf\u099c\u09cd\u099e\u09be\u09b8\u09be": 3962,
  "\u2581\u09ab\u09cd\u09b0\u09c7\u09ae": 3963,
  "\u2581\u09ae\u09be\u0989\u09a8\u09cd\u099f": 3964,
  "\u2581workers": 3965,
  "\u2581\u09ae\u09be\u09b0\u09cd\u0995": 3966,
  "out": 3967,
  "\u2581NW": 3968,
  "\u2581Source": 3969,
  "\u2581\u0986\u09b8\u09b2\u09c7\u0987": 3970,
  "\u2581\u0995\u09b0\u09c7\u099b\u09bf\u09b2\u09c7": 3971,
  "\u2581\u09a6\u09c7\u09b6\u099f\u09bf\u09b0": 3972,
  "\u2581\u09b0\u09c7\u0996\u09be": 3973,
  "\u2581\u0985\u09ac\u09b8\u09cd\u09a5\u09be\u09b0": 3974,
  "\u2581\u09ac\u09af\u09bc\u09c7": 3975,
  "!\u2019\u2019": 3976,
  "\u0997\u09be": 3977,
  "\u2581loss": 3978,
  "\u2581\u09aa\u09cd\u09b0\u09ad\u09be\u09ac\u09bf\u09a4": 3979,
  "To": 3980,
  "\u2581Toggle": 3981,
  "\u2581End": 3982,
  "\u2581element": 3983,
  "\u2581step": 3984,
  "\u2581divine": 3985,
  "\u2581\u09b9\u09bf\u09b8\u09be\u09ac": 3986,
  "ra": 3987,
  "\u2581De": 3988,
  "\u2581None": 3989,
  "\u2581played": 3990,
  "\u2581reject": 3991,
  "\u2581willing": 3992,
  "\u2581wishes": 3993,
  "\u2581\u0985\u09b2": 3994,
  "\u2581\u099c\u09a8\u09aa\u09cd\u09b0\u09bf\u09af\u09bc": 3995,
  "\u2581\u09a6\u09c7": 3996,
  "\u2581\u09aa\u09c1\u09b0\u09b8\u09cd\u0995\u09be\u09b0": 3997,
  "\u2581James": 3998,
  "\u2581Perhaps": 3999,
  "\u2581\u0995\u09be\u099b\u09c7\u0987": 4000,
  "\u2581\u09a6\u09c7\u0996\u09c7\u09a8": 4001,
  "\u2581\u09a8\u09c7\u09a4\u09be": 4002,
  "\u2581\u09b8\u09be\u0987\u099f": 4003,
  "\u2581Never": 4004,
  "\u2581loaded": 4005,
  "\u2581messenger": 4006,
  "\u2581filled": 4007,
  "te": 4008,
  "\u2581activities": 4009,
  "\u2581row": 4010,
  "\u2581believing": 4011,
  "\u2581maintain": 4012,
  "\u2581\u0995\u09b0\u09bf\u09a4\u09c7": 4013,
  "\u2581\u09aa\u09be\u09ac\u09b2\u09bf\u0995": 4014,
  "\u2581Log": 4015,
  "\u2581determined": 4016,
  "\u2581probably": 4017,
  "\u2581sleep": 4018,
  "\u2581Every": 4019,
  "\u2581\u09ab\u09bf\u09b0\u09bf\u09b6": 4020,
  "\u09b8\u09c2\u099a\u0995": 4021,
  "\u2581prove": 4022,
  "\u2581via": 4023,
  "\u09a4\u09bf": 4024,
  "\u2581Co": 4025,
  "\u2581moment": 4026,
  "\u2581\u0986\u099f": 4027,
  "\u2581\u09aa\u09cd\u09b0\u09c7\u09b8\u09bf\u09a1\u09c7\u09a8\u09cd\u099f": 4028,
  "\u2581\u09b8\u09c7\u09b0\u09be": 4029,
  "\u2581\u09b8\u09cd\u09a5\u0997\u09bf\u09a4": 4030,
  "\u2581\u0995\u09cd\u09b7\u09a4\u09bf": 4031,
  "\u2581\u09ac\u09bf\u09ad\u09be\u099c\u09a8": 4032,
  "\u2581Nay": 4033,
  "\u2581examples": 4034,
  "\u2581fruit": 4035,
  "\u2581\u098f\u0995\u09a6\u09bf\u09a8": 4036,
  "\u2581\u099c\u0997\u09ce": 4037,
  "\u2581\u09b0\u09c7\u0996\u09c7\u099b\u09c7\u09a8": 4038,
  "\u2581York": 4039,
  "\u2581fail": 4040,
  "\u2581reasons": 4041,
  "\u2581\u098f\u09a6\u09bf\u0995\u09c7": 4042,
  "\u2581\u0996\u09c7\u09af\u09bc\u09c7": 4043,
  "\u2581board": 4044,
  "\u2581forbidden": 4045,
  "\u2581\u0996\u09c1\u09a8": 4046,
  "\u2581white": 4047,
  "\u2581\u09a6\u09bf\u09ac\u09c7": 4048,
  "\u2581Hello": 4049,
  "\u2581Revelation": 4050,
  "\u2581Font": 4051,
  "\u2581baby": 4052,
  "\u2581\u0996\u09cd\u09b0\u09bf\u09b8\u09cd\u099f\u09c0\u09af\u09bc": 4053,
  "\u2581\u09a4\u09a5\u09be\u09aa\u09bf": 4054,
  "\u2581\u09b0\u09be\u09b8\u09cd\u09a4\u09be\u09af\u09bc": 4055,
  "\u2581Over": 4056,
  "\u2581\u09b2\u09bf\u09b8\u09cd\u099f": 4057,
  "\u09a0\u09bf\u09a4": 4058,
  "\u2581Mode": 4059,
  "\u2581explains": 4060,
  "\u2581nine": 4061,
  "\u2581trash": 4062,
  "\u2581\u09af\u09be\u09a4\u09cd\u09b0\u09be": 4063,
  "\u2581\u09b8\u09be\u09ae\u09b0\u09bf\u0995": 4064,
  "\u2581Pakistan": 4065,
  "\u2581advice": 4066,
  "\u2581refuge": 4067,
  "\u2581\u09af\u09c1\u09ac\u0995": 4068,
  "\u2581\u09b0\u09c7\u0996\u09cb": 4069,
  "\u2581Muslims": 4070,
  "\u2581Still": 4071,
  "\u2581guys": 4072,
  "\u2581opening": 4073,
  "ry": 4074,
  "\u2581issues": 4075,
  "\u2581\u09a8\u09be\u0997\u09b0\u09bf\u0995\u09a6\u09c7\u09b0": 4076,
  "\u2581comfort": 4077,
  "\u2581\u099a\u09c7\u09af\u09bc\u09c7\u0993": 4078,
  "\u2581\u099c\u09bf\u09a8": 4079,
  "\u2581touch": 4080,
  "ul": 4081,
  "\u2581import": 4082,
  "\u2581Devil": 4083,
  "\u2581input": 4084,
  "\u2581\u09b0\u09c7\u0995\u09b0\u09cd\u09a1": 4085,
  "\u2581\u09e8\u09e6\u09e7\u09e7": 4086,
  "by": 4087,
  "\u0995\u09be\u09b2\u09c7": 4088,
  "\u2581%3$": 4089,
  "\u2581escape": 4090,
  "\u2581forces": 4091,
  "\u2581\u09aa\u09be\u09b0\u09cd\u09b6\u09cd\u09ac": 4092,
  "\u2581Phone": 4093,
  "\u2581\u0995\u09af\u09bc\u09c7\u0995\u099c\u09a8": 4094,
  "\u2581\u09a1\u09b2\u09be\u09b0": 4095,
  "\u2581\u09ac\u09bf\u0995\u09cd\u09b0\u09bf": 4096,
  "doers": 4097,
  "\u2581applications": 4098,
  "\u2581circumstances": 4099,
  "\u2581\u09ac\u09bf\u09b0\u09a4": 4100,
  "\u2581respond": 4101,
  "\u2581\u0985\u09aa\u09be\u09b0\u09c7\u09b6\u09a8": 4102,
  "\u2581Value": 4103,
  "\u2581continued": 4104,
  "\u2581plain": 4105,
  "\u2581Minister": 4106,
  "\u2581Qur": 4107,
  "\u2581minute": 4108,
  "\u2581\u09a8\u09bf\u09b9\u09a4": 4109,
  "\u2581\u09ad\u09bf\u09a4\u09b0\u09c7": 4110,
  "ate": 4111,
  "\u2581immediately": 4112,
  "\u2581links": 4113,
  "\u2581\u0985\u09a7\u09c0\u09a8\u09c7": 4114,
  "\u2581\u0995\u09be\u09b0\u09cd\u09af\u0995\u09b0": 4115,
  "\u2581\u0996\u09c7\u09a4\u09c7": 4116,
  "\u2581\u099e\u09a4\u09be": 4117,
  "\u2581\u09b0\u09a4\u09be": 4118,
  "\u2581\u09b8\u09cd\u09ac\u09aa\u09cd\u09a8": 4119,
  "\u2581Scripture": 4120,
  "\u2581principles": 4121,
  "\u2581\u09aa\u09be\u09a4\u09be": 4122,
  "\u2581thereof": 4123,
  "\u2581\u09aa\u09b0\u09c0\u0995\u09cd\u09b7\u09a3": 4124,
  "\u2581\u09b8\u09c7\u0995\u09c7\u09a8\u09cd\u09a1": 4125,
  "\u258117": 4126,
  "\u2581Ask": 4127,
  "\u2581East": 4128,
  "\u2581houses": 4129,
  "\u2581popular": 4130,
  "\u2581\u0995\u09cb": 4131,
  "\u2581\u0996\u09c7\u09b2\u09cb\u09af\u09bc\u09be\u09a1\u09bc": 4132,
  "\u2581Manager": 4133,
  "\u2581truthful": 4134,
  "\u2581\u0989\u099c\u09cd\u099c\u09cd\u09ac\u09b2": 4135,
  "\u2581apply": 4136,
  "\u2581creating": 4137,
  "\u2581integrity": 4138,
  "\u2581quite": 4139,
  "\u2581\u0986\u09a4": 4140,
  "\u2581\u099c\u09be\u09a8\u09be\u09a4\u09c7": 4141,
  "\u2581strike": 4142,
  "\u2581\u09a7\u09be\u0981\u09a7\u09be": 4143,
  "\u2581guilty": 4144,
  "\u2581\u09b6\u09bf\u09b6\u09c1": 4145,
  "\u2581beginning": 4146,
  "\u2581commit": 4147,
  "\u2581management": 4148,
  "\u2581\u09b2\u09be\u0997\u099b\u09c7": 4149,
  "\u2581attribute": 4150,
  "\u2581swear": 4151,
  "\u2581\u09ac\u09bf\u09b0\u09cb\u09a7\u09c0": 4152,
  "\u09b2\u09be\u09ae": 4153,
  "\u09b8\u09cd\u099f": 4154,
  "\u2581quality": 4155,
  "\u2581Configure": 4156,
  "\u2581Network": 4157,
  "\u2581choice": 4158,
  "\u2581\u0995\u09be\u099c\u099f\u09bf": 4159,
  "\u2581\u09ac\u09be\u099a\u09cd\u099a\u09be": 4160,
  "#": 4161,
  "\u2581Ra": 4162,
  "\u2581Russian": 4163,
  "\u2581Subject": 4164,
  "\u2581Windows": 4165,
  "\u2581cities": 4166,
  "\u2581\u0986\u09a8\u09a4\u09c7": 4167,
  "\u2581\u09a6\u09c7\u0996\u099b\u09bf": 4168,
  "\u2581\u09ab\u099f\u09cb": 4169,
  "\u2581PGP": 4170,
  "\u2581seeing": 4171,
  "\u2581spent": 4172,
  "\u2581\u0986\u09a8\u09a8\u09cd\u09a6\u09bf\u09a4": 4173,
  "\u2581\u09a6\u09c7\u0996\u09bf\u09af\u09bc\u09c7": 4174,
  "\u2581\u09ad\u09ac\u09bf\u09b7\u09cd\u09af\u09ce": 4175,
  "\u2581\u09b8\u09c1\u09b0\u0995\u09cd\u09b7\u09be": 4176,
  "\"\u0964": 4177,
  "\u2581April": 4178,
  "\u2581pain": 4179,
  "\u2581partners": 4180,
  "\u2581\u0985\u09ad\u09bf\u09b7\u09bf\u0995\u09cd\u09a4": 4181,
  "\u2581\u09ae\u09cb\u09b6\u09bf": 4182,
  "\u2581username": 4183,
  "\u2581\u09a4\u09be\u09b9\u09be\u09b0": 4184,
  "\u2581\u09a4\u09cd\u09af\u09be\u0997": 4185,
  "do": 4186,
  "\u2581Really": 4187,
  "\u2581determine": 4188,
  "\u2581\u0995\u09cb\u09a5\u09be\u0993": 4189,
  "\u2581\u09e9\u09e8": 4190,
  "\u2581coverage": 4191,
  "\u2581keyboard": 4192,
  "\u2581\u0986\u09b0\u09ac": 4193,
  "\u2581\u09a4\u09cb\u09b2\u09be": 4194,
  "\u2581\u09b9\u09af\u09bc\u09cb": 4195,
  "\u2581\u09b8\u0995\u09be\u09b2": 4196,
  "\u2581recompense": 4197,
  "\u2581chat": 4198,
  "\u2581grateful": 4199,
  "he": 4200,
  "\u2581\u099f\u09c1\u0987\u099f\u09be\u09b0\u09c7": 4201,
  "\u2581\u09ac\u09c7\u09a1\u09bc\u09c7": 4202,
  "\u2581\u09b9\u09cb\u09a8": 4203,
  "\u2581Corinthians": 4204,
  "\u2581percent": 4205,
  "\u2581website": 4206,
  "\u2581\u0996\u09be\u09b2\u09bf": 4207,
  "\u2581\u09ae\u09cb\u09ac\u09be\u0987\u09b2": 4208,
  "\u2581\u09b8\u09ce\u09aa\u09a5\u09c7": 4209,
  "list": 4210,
  "\u2581cover": 4211,
  "\u2581expect": 4212,
  "\u2581flesh": 4213,
  "\u2581explained": 4214,
  "\u2581\u0995\u09b0\u09bf\u09a8\u09bf": 4215,
  "\u2581\u09b6\u09bf\u0996\u09a4\u09c7": 4216,
  "\u2581\u09b8\u09cc\u09a6\u09bf": 4217,
  "\u2581begin": 4218,
  "\u2581\u0986\u09b9\u09ac\u09be\u09a8": 4219,
  "\u2581\u0995\u09be\u09b0\u09cd\u09a1": 4220,
  "\u2581\u09af\u09cc\u09a8": 4221,
  "\u2581\u0986\u09af\u09bc\u09be\u09a4\u09b8\u09ae\u09c2\u09b9": 4222,
  "\u2581\u0987\u09a4\u09bf\u09aa\u09c2\u09b0": 4223,
  "\u2581\u099a\u09cb\u0996\u09c7": 4224,
  "\u2581\u09af\u0995\u09c7": 4225,
  "\u099c\u09c7": 4226,
  "\u2581points": 4227,
  "\u2581promises": 4228,
  "\u2581\u0985\u09ac\u09be\u099e\u09cd\u099b\u09bf\u09a4": 4229,
  "\u2581\u09b0\u09be\u09a4\u09c7\u09b0": 4230,
  "\u2581\u09b8\u09cd\u09ac\u09be\u09a7\u09c0\u09a8\u09a4\u09be": 4231,
  "ch": 4232,
  "end": 4233,
  "\u09bf\u09af\u09bc\u09be\u09a8": 4234,
  "\u2581\u0989\u099a\u09bf\u09ce": 4235,
  "\u09ac\u09be\u09a8": 4236,
  "\u2581Has": 4237,
  "\u2581expected": 4238,
  "\u2581playing": 4239,
  "\u2581\u09aa\u099f\u09ad\u09c2\u09ae\u09bf": 4240,
  "for": 4241,
  "\u2581cache": 4242,
  "\u2581daily": 4243,
  "\u2581\u0985\u09ac": 4244,
  "\u2581\u09a4\u09c1\u09ae\u09bf\u0987": 4245,
  "\u2581\u09a8\u09bf\u09b7\u09bf\u09a6\u09cd\u09a7": 4246,
  "\u2581condition": 4247,
  "\u2581perform": 4248,
  "\u09a1\u09bc": 4249,
  "\u2581Sorry": 4250,
  "\u2581hearing": 4251,
  "\u258124": 4252,
  "\u2581\u09a6\u09bf\u099a\u09cd\u099b\u09bf": 4253,
  "\u2581\u09b8\u09be\u0995\u09cd\u09b7\u09bf": 4254,
  "\u2581drop": 4255,
  "\u2581\u09a5\u09bf\u09ac": 4256,
  "ter": 4257,
  "\u2581Hour": 4258,
  "\u2581lest": 4259,
  "\u2581\u09b2\u09be\u09b2": 4260,
  "\u09a4\u09cb\u09ae\u09be\u09a6\u09c7\u09b0": 4261,
  "\u2581duty": 4262,
  "\u2581\u0995\u09b0\u09be\u09a8": 4263,
  "\u2581\u09ae\u09b9\u09be\u09b6\u0995": 4264,
  "\u2581\u09b2\u09cb\u0995\u0995\u09c7": 4265,
  "\u2581ill": 4266,
  "\u2581\u09aa\u09cd\u09b0\u09b8\u09cd\u09a4\u09be\u09ac": 4267,
  "\u2581\u09ac\u09cd\u09af\u0995\u09cd\u09a4\u09bf\u0995\u09c7": 4268,
  "lt": 4269,
  "\u09a8\u09c7": 4270,
  "\u2581minister": 4271,
  "\u2581replace": 4272,
  "\u258125": 4273,
  "\u2581ability": 4274,
  "\u2581win": 4275,
  "\u2581\u0987\u09a4\u09bf\u09b9\u09be\u09b8": 4276,
  "\u2581\u09ae\u09be\u0982\u09b8": 4277,
  "\u2581\u09af\u09a5\u09c7\u09b7": 4278,
  "\u2581Life": 4279,
  "\u2581\u09b8\u09c7\u0997\u09c1\u09b2\u09cb\u09b0": 4280,
  "\u2581darkness": 4281,
  "\u2581major": 4282,
  "\u2581\u0987\u09a8\u09aa\u09c1\u099f": 4283,
  "\u2581\u098f\u09b8\u09c7\u099b\u09bf\u09b2\u09c7\u09a8": 4284,
  "\u2581\u0995\u09be\u09b0\u0993": 4285,
  "\u2581\u09a6\u09bf": 4286,
  "\u2581\u09a8\u09a5\u09bf\u09b0": 4287,
  "\u2581\u099a\u09c1\u09b0\u09bf": 4288,
  "\u2581\u09aa\u09cb\u09b6\u09be\u0995": 4289,
  "\u2581female": 4290,
  "\u2581proper": 4291,
  "\u2581\u09a8\u09bf\u0995\u099f\u09c7": 4292,
  "ous": 4293,
  "\u2581release": 4294,
  "\u2581\u0995\u09b0\u09cd\u09ae\u09b8\u09c2\u099a\u09c0": 4295,
  "\u2581\u0987\u09a4\u09bf\u09ae\u09a7\u09cd\u09af\u09c7\u0987": 4296,
  "\u2581moon": 4297,
  "\u2581\u09ae\u09a8\u09c7\u09b0": 4298,
  "\u2581fucking": 4299,
  "\u2581region": 4300,
  "ha": 4301,
  "time": 4302,
  "\u2581July": 4303,
  "\u2581\u09a4\u0996\u09a8\u0987": 4304,
  "\u2581\u09ae\u09be\u09a8\u09c7\u09b0": 4305,
  "9": 4306,
  "\u2581Software": 4307,
  "\u2581worked": 4308,
  "\u2581\u098f\u09a8\u09c7": 4309,
  "\u2581August": 4310,
  "\u2581related": 4311,
  "\u2581\u09a1\u09bf\u09b0\u09c7\u0995\u09cd\u099f\u09b0\u09bf\u09b0": 4312,
  "Do": 4313,
  "help": 4314,
  "\u2581\u09b6\u09b0\u09cd\u099f\u0995\u09be\u099f": 4315,
  "6": 4316,
  "la": 4317,
  "\u2581protests": 4318,
  "\u2581spiritually": 4319,
  "\u2581x": 4320,
  "\u2581\u09ae\u09cb\u099f": 4321,
  "\u00e1": 4322,
  "\u2581\u09a8\u09bf\u099c\u09c7\u0987": 4323,
  "\u2581\u09b8\u09cd\u0995\u09cd\u09b0\u09bf\u09aa\u09cd\u099f": 4324,
  "\u2581terms": 4325,
  "\u2581\u0985\u09a8\u09c7\u0995\u09c7\u0987": 4326,
  "\u2581\u0986\u09af\u09bc": 4327,
  "\u2581Watchtower": 4328,
  "\u2581\u0986\u09ae\u09b0\u09be\u0993": 4329,
  "\u2581\u0997\u09b2\u09cd\u09aa": 4330,
  "\u2581\u0985\u09a8\u09c1\u09ad\u09c2\u09a4\u09bf": 4331,
  "\u2581\u09a4\u09ac": 4332,
  "\u2581\u09aa\u09c1\u09a4\u09cd\u09b0": 4333,
  "\u2581\u09b9\u09cd\u09af\u09be\u09b2\u09cb": 4334,
  "\u2581capital": 4335,
  "Key": 4336,
  "\u2581SMTP": 4337,
  "\u2581knowing": 4338,
  "\u2581visited": 4339,
  "\u2581\u099a\u09c1\u0995\u09cd\u09a4\u09bf": 4340,
  "\u2581mighty": 4341,
  "\u2581\u09b0\u09be\u0996\u09c7\u09a8": 4342,
  "\u2581Mo": 4343,
  "\u2581qualities": 4344,
  "\u2581\u09aa\u09be\u0997\u09b2": 4345,
  "\u2581\u09b6\u09c0\u09b0\u09cd\u09b7\u0995": 4346,
  "\u2581\u09b6\u09c1\u09ad": 4347,
  "ling": 4348,
  "\u2581Insert": 4349,
  "\u2581destruction": 4350,
  "\u2581\u0997\u09bf\u09af\u09bc\u09c7\u099b\u09bf\u09b2\u09c7\u09a8": 4351,
  "\u2581\u09af\u09c7\u0987": 4352,
  "\u2581laws": 4353,
  "\u2581quickly": 4354,
  "\u2581\u09ab\u09c7\u09b0\u09be\u0989\u09a8": 4355,
  "\u2581Desktop": 4356,
  "\u2581rename": 4357,
  "\u2581specific": 4358,
  "\u2581\u09a6\u09c1\u09a8\u09bf\u09af\u09bc\u09be\u09b0": 4359,
  "\u2581\u09ac\u09be\u09a3\u09c0": 4360,
  "\u2581\u09ac\u09bf\u09ad\u0995\u09cd\u09a4": 4361,
  "\u2581\u09ae\u09c7\u0987\u09b2\u09bf\u0982": 4362,
  "\u2581Robots": 4363,
  "\u2581bottom": 4364,
  "\u2581recorded": 4365,
  "\u2581\u0989\u0987\u09a8\u09cd\u09a1\u09cb\u09a4\u09c7": 4366,
  "\u2581\u0985\u09ac\u09be\u09a7": 4367,
  "\u2581\u09a1\u09cd\u09b0\u09be\u0987\u09ad": 4368,
  "\u2581\u09ac\u09be\u09a1\u09bc\u09bf\u09b0": 4369,
  "\u2581\u09ac\u09cd\u09af\u09a4\u09c0\u09a4": 4370,
  "\u2581\u09b0\u09c7\u0996\u09c7\u099b\u09c7": 4371,
  "\u2581\u09b6\u09be\u09a8\u09cd\u09a4": 4372,
  "\u2581court": 4373,
  "\u2581\u098f\u09a8\u09cd\u099f\u09cd\u09b0\u09bf": 4374,
  "\u099b\u09bf\u09b2": 4375,
  "DVD": 4376,
  "\u2581\u0996\u09cd\u09b0\u09bf\u09b8\u09cd\u099f\u09be\u09a8\u09a6\u09c7\u09b0": 4377,
  "\u2581Australia": 4378,
  "\u2581\u09ae\u09be\u09af\u09bc\u09c7\u09b0": 4379,
  "\u2581\u09af\u09be\u09ac\u09be\u09b0": 4380,
  "me": 4381,
  "\u2581appropriate": 4382,
  "\u2581weeks": 4383,
  "\u2581patience": 4384,
  "em": 4385,
  "\u2581Full": 4386,
  "\u2581produce": 4387,
  "\u2581stated": 4388,
  "\u2581\u0986\u09b8\u09cd\u09a5\u09be": 4389,
  "\u2581\u0996\u09be\u09a6\u09cd\u09af": 4390,
  "\u2581\u099c\u09a8\u09aa\u09a6": 4391,
  "\u2581\u099f\u09c7\u09a8\u09c7": 4392,
  "\u2581Jacob": 4393,
  "\u2581arrested": 4394,
  "\u2581corruption": 4395,
  "\u2581general": 4396,
  "\u2581\u09aa\u09be\u09b6\u09c7": 4397,
  "Q": 4398,
  "\u2581useful": 4399,
  "\u2581\u09ac\u09be\u09a6\u09a8": 4400,
  "\u2581administrator": 4401,
  "\u2581servant": 4402,
  "\u2581\u0995\u09be\u09b0\u09cd\u09b8\u09be\u09b0": 4403,
  "\u2581\u09a4\u09be\u09b9\u09be": 4404,
  "We": 4405,
  "\u2581turns": 4406,
  "\u09af\u09c1\u0995\u09cd\u09a4": 4407,
  "\u2581December": 4408,
  "\u2581education": 4409,
  "\u2581\u0985\u09ac\u0995\u09be\u09b6": 4410,
  "\u2581\u09aa\u09b0\u09bf\u09a4\u09cd\u09b0\u09be\u09a3": 4411,
  "\u2581\u09b8\u09be\u09ae\u0997\u09cd\u09b0\u09c0": 4412,
  "\u2581served": 4413,
  "\u2581\u099a\u09be\u0987\u09b2\u09c7": 4414,
  "\u2581\u09ab\u09c7\u09b0\u09a4": 4415,
  "\u2581\u09af\u09be\u099a": 4416,
  "\u2581Back": 4417,
  "\u2581Specify": 4418,
  "\u2581\u0985\u09aa\u09c7\u0995": 4419,
  "\u2581\u0986\u09ae\u09bf\u0987": 4420,
  "line": 4421,
  "\u2581road": 4422,
  "\u2581\u09a6\u09bf\u09a4": 4423,
  "\u2581\u09a8\u09ae\u09cd\u09ac\u09b0": 4424,
  "\u2581\u09b2\u09be\u099e": 4425,
  "\u0995\u09c7\u0987": 4426,
  "\u2581Holy": 4427,
  "\u2581\u09e7\u09e6\u09e6": 4428,
  "\u2581Version": 4429,
  "\u2581\u0997\u09c1\u09a3": 4430,
  "\u2581\u09a0\u09bf\u0995\u09be\u09a8\u09be\u09ac\u0987": 4431,
  "\u2581\u09b0\u09af\u09bc": 4432,
  "\u2581January": 4433,
  "\u2581June": 4434,
  "\u2581\u0985\u09ac\u0997\u09a4": 4435,
  "\u2581\u0998\u09cb\u09b7\u09a8\u09be": 4436,
  "\u2581anger": 4437,
  "\u2581f": 4438,
  "\u2581\u099a\u09b2\u099a\u09cd\u099a\u09bf\u09a4\u09cd\u09b0": 4439,
  "\u2581\u099a\u09b2\u09c7\u099b\u09c7": 4440,
  "\u2581disabled": 4441,
  "\u2581\u09b8\u09be\u0995\u09cd\u09b7\u09cd\u09af": 4442,
  "\u2581Mount": 4443,
  "\u2581Up": 4444,
  "\u2581birth": 4445,
  "\u2581\u0989\u09aa\u09b9\u09be\u09b0": 4446,
  "\u2581\u0996\u09cd\u09b0\u09bf\u09b8\u09cd\u099f\u09c7\u09b0": 4447,
  "\u2581\u09aa\u09cd\u09b0\u0995\u09b2\u09cd\u09aa\u09c7\u09b0": 4448,
  "\u2581Any": 4449,
  "\u2581built": 4450,
  "\u2581concern": 4451,
  "\u2581granted": 4452,
  "\u2581responsibility": 4453,
  "\u2581\u09b8\u09cd\u0995\u09cd\u09b0\u09bf\u09a8": 4454,
  "\u2581anyway": 4455,
  "\u2581client": 4456,
  "\u2581lo": 4457,
  "\u2581pure": 4458,
  "\u2581\u098f\u0995\u09b8\u09be\u09a5\u09c7": 4459,
  "\u2581\u09ad\u09b2\u09bf\u0989\u09ae": 4460,
  "\u0995\u09c1": 4461,
  "\u2581Romans": 4462,
  "if": 4463,
  "\u2581air": 4464,
  "\u2581couldn": 4465,
  "\u2581schema": 4466,
  "\u258115,": 4467,
  "\u2581Maybe": 4468,
  "\u2581\u0995\u09b0\u099b\u09cb": 4469,
  "\u2581Dad": 4470,
  "\u2581Ekiga": 4471,
  "\u2581citizens": 4472,
  "In": 4473,
  "\u2581shit": 4474,
  "\u2581\u0986\u09a4\u09cd\u09ae\u09be\u09b0": 4475,
  "\u09ae\u09be\u09b0": 4476,
  "\u2581Hide": 4477,
  "\u2581chance": 4478,
  "\u2581physical": 4479,
  "\u2581\u09ac\u09bf\u09a4": 4480,
  "\u2581restore": 4481,
  "\u2581shortcut": 4482,
  "\u2581\u09aa\u09b0\u09bf\u09aa\u09c2\u09b0\u09cd\u09a3": 4483,
  "\u2581addition": 4484,
  "\u2581refused": 4485,
  "\u2581\u09b0\u09c2\u09aa": 4486,
  "\u2581exactly": 4487,
  "\u2581ransom": 4488,
  "\u2581\u0995\u09cd\u09b7\u09a4\u09bf\u0997\u09cd\u09b0\u09b8\u09cd\u09a4": 4489,
  "\u2581\u09a1\u09be\u09b0": 4490,
  "\u2581amount": 4491,
  "\u2581\u099c\u0997\u09a4\u09c7": 4492,
  "\u2581\u09a1\u09c7\u0995\u09c7": 4493,
  "\u25812014": 4494,
  "\u2581looks": 4495,
  "\u2581t": 4496,
  "\u2581usage": 4497,
  "\u2581\u09ea\u09e6": 4498,
  "\u25814.": 4499,
  "\u2581\u098f\u09ae\u09a8\u0995\u09c0": 4500,
  "\u2581\u09b8\u09ae\u09ac\u09c7\u09a4": 4501,
  "\u2581master": 4502,
  "\u2581wasn": 4503,
  "\u2581\u09a6\u09c7\u09ac\u09cb": 4504,
  "\u2581\u09aa\u09cd\u09b0\u09a4\u09bf\u09a6\u09bf\u09a8": 4505,
  "\u2581\u09b8\u09be\u09ae\u09be\u09a8\u09cd\u09af": 4506,
  "be": 4507,
  "\u0995\u09b0": 4508,
  "\u2581reflect": 4509,
  "\u2581\u09ac\u09b2\u099b\u09c7\u09a8": 4510,
  "\u2581\u09af\u09c7\u0995\u09cb\u09a8\u09cb": 4511,
  "\u2581notification": 4512,
  "\u2581Z": 4513,
  "\u2581stories": 4514,
  "\u2581warned": 4515,
  "\u2581\u0985\u09ab\u09bf\u09b8\u09c7": 4516,
  "\u2581\u09a6\u09c1\u099c\u09a8": 4517,
  "\u2581\u09a8\u09bf\u0995\u09c3\u09b7": 4518,
  "\u2581Level": 4519,
  "\u2581associated": 4520,
  "\u2581foreign": 4521,
  "\u2581greatest": 4522,
  "\u2581\u09a4\u09c1\u09a4": 4523,
  "\u2581\u09ae\u09be\u09b0\u09cd\u0995\u09bf\u09a8": 4524,
  "\u2581Japan": 4525,
  "\u2581sexual": 4526,
  "\u2581\u0995\u09b2\u09cd\u09aa\u09a8\u09be": 4527,
  "\u2581\u09ac\u09cd\u09af\u09af\u09bc": 4528,
  "\u2581\u09ae\u09be\u09a7\u09cd\u09af\u09ae": 4529,
  "\u2581\u09e9\u09e9": 4530,
  "\u2581Instead": 4531,
  "\u2581Iranian": 4532,
  "\u2581\u0989\u09b2": 4533,
  "\u2581red": 4534,
  "\u2581\u09aa\u09b0\u09bf\u09b8\u09c7\u09ac\u09be": 4535,
  "\u2581100": 4536,
  "\u2581games": 4537,
  "\u2581\u09a6\u09be\u0981\u09a1\u09bc": 4538,
  "\u2581Islamic": 4539,
  "\u2581\u0985\u09b0\u09cd\u09a5\u09a8\u09c8\u09a4\u09bf\u0995": 4540,
  "\u2581\u09aa\u09b0\u09c7\u0993": 4541,
  "\u2581\u09b2\u09ae\u09cd\u09ac\u09be": 4542,
  "\u2581gathered": 4543,
  "\u2581\u09aa\u09a4\u09bf\u09a4": 4544,
  "\u2581completely": 4545,
  "\u2581\u0986\u09aa": 4546,
  "\u2581summary": 4547,
  "\u2581\u09ae\u09c2\u09b2\u09a4": 4548,
  "\u258112:": 4549,
  "\u2581animals": 4550,
  "\u2581\u09ad\u09be\u09b0": 4551,
  "\u2581Egyptian": 4552,
  "\u2581West": 4553,
  "\u2581offered": 4554,
  "\u2581\u0995\u09b0\u09be\u09af\u09bc": 4555,
  "\u2581\u0996\u09cb\u09b2\u09be\u09b0": 4556,
  "\u2581\u09ac\u09be\u09aa\u09cd\u09a4\u09bf\u09b8\u09cd\u09ae": 4557,
  "\u2581Empty": 4558,
  "\u2581fulfilled": 4559,
  "\u2581properties": 4560,
  "\u2581wonder": 4561,
  "\u2581\u099a\u09be\u0987\u09b2\u09cd\u09a1": 4562,
  "\u2581\u09a8\u09bf\u09b0\u09cd\u09a6\u09c7\u09b6\u0995": 4563,
  "\u2581dust": 4564,
  "\u2581throughout": 4565,
  "\u2581\u0997\u09c0\u0995\u09be\u09b0": 4566,
  "\u2581\u099c\u09be\u09a8\u09bf\u09af\u09bc\u09c7\u099b\u09c7\u09a8": 4567,
  "\u2581\u09aa\u09b0\u09ae\u099c": 4568,
  "\u2581\u09aa\u09be\u09b0\u099b\u09bf": 4569,
  "\u2581\u09af\u09be\u09ac\u09be\u09a6\u09c0": 4570,
  "\u2581\u09b0\u09ac\u09be\u09b9\u09bf\u09a4": 4571,
  "\u2581\u09b0\u09be\u0996\u09ac\u09c7": 4572,
  "\u2581\u09b7\u09a4\u09bf": 4573,
  "\u2581Daniel": 4574,
  "\u2581activity": 4575,
  "\u2581member": 4576,
  "\u2581replied": 4577,
  "\u2581\u09b8\u09be\u0995\u09cd\u09b7\u09bf\u09b0\u09be": 4578,
  "\u258140": 4579,
  "\u2581edit": 4580,
  "\u2581sick": 4581,
  "\u2581San": 4582,
  "\u2581\u09a6\u09bf\u09b2\u09c7\u09a8": 4583,
  "\u09b9\u09be": 4584,
  "\u2581loyal": 4585,
  "\u2581modify": 4586,
  "\u2581reveal": 4587,
  "\u2581\u0985\u09b8\u09cd\u099f\u09cd\u09b0\u09c7\u09b2\u09bf\u09af\u09bc\u09be": 4588,
  "\u2581\u09a8\u09c7\u09ac\u09c7": 4589,
  "\u2581\u09aa\u09b0\u09bf\u099a\u09b0\u09cd\u09af\u09be": 4590,
  "\u2581Ma": 4591,
  "\u2581areas": 4592,
  "\u2581challenge": 4593,
  "\u2581delivered": 4594,
  "\u2581\u0987\u09ae\u09c7\u099c": 4595,
  "lu": 4596,
  "\u2581\u099c\u09b2\u09a6\u09bf": 4597,
  "\u2581\u09b8\u09ae\u09cd\u09aa\u09b0\u09cd\u0995\u09bf\u09a4": 4598,
  "\u2581thousand": 4599,
  "\u2581volume": 4600,
  "\u2581journey": 4601,
  "\u2581\u09aa\u09cd\u09b0\u09a4\u09bf\u09b7\u09cd\u09a0\u09be\u09a8": 4602,
  "\u201d\u0964": 4603,
  "\u2581Always": 4604,
  "\u2581Junk": 4605,
  "\u2581\u0989\u09ce\u09b8\u09be\u09b9": 4606,
  "\u2581\u0995\u09a4\u099f\u09be": 4607,
  "\u2581apart": 4608,
  "\u2581restart": 4609,
  "\u2581dock": 4610,
  "\u2581\u09a4\u09c3\u09a4\u09c0\u09af\u09bc": 4611,
  "net": 4612,
  "\u09b6\u09c0\u09b2": 4613,
  "\u2581proud": 4614,
  "\u2581\u09a4\u09c0\u09a6\u09c7\u09b0": 4615,
  "\u2581\u09ac\u09b0\u09cd\u099c\u09a8": 4616,
  "\u2581\u09b0\u09a4\u09bf\u09ab\u09b2": 4617,
  "\u2581\u09b0\u09ae\u09b6\u09be\u09b2\u09c0": 4618,
  "\u2581Put": 4619,
  "\u2581regard": 4620,
  "\u2581\u0985\u09a8\u09c1\u09ad\u09c2\u09ae\u09bf\u0995": 4621,
  "\u2581\u0986\u0993\u09af\u09bc\u09be\u099c": 4622,
  "\u2581Ha": 4623,
  "\u2581decisions": 4624,
  "\u2581explain": 4625,
  "\u2581victory": 4626,
  "\u2581\u0985\u09b8\u09ae\u09b0\u09cd\u09a5\u09bf\u09a4": 4627,
  "\u2581\u098f\u0995\u09cd\u09b8\u099f\u09c7\u09a8\u09b6\u09a8": 4628,
  "\u2581\u09aa\u09be\u0993": 4629,
  "\u2581\u09b8\u09be\u0995\u09cd\u09b7\u09be\u09ce": 4630,
  "\u2581acts": 4631,
  "\u2581\u09ae\u09bf\u09b8": 4632,
  "\u2581\u09b9\u09be\u09ae\u09b2\u09be": 4633,
  "ance": 4634,
  "\u2581\u0985\u09a8\u09c1\u09b8\u09c2\u099a\u09c0": 4635,
  "\u2581\u0985\u09b8\u09cd\u09ac\u09c0\u0995\u09be\u09b0": 4636,
  "\u2581\u09aa\u09be\u09a5\u09b0": 4637,
  "\u2581\u09b8\u0995\u09be\u09b2\u09c7": 4638,
  "\u09ae\u09a8": 4639,
  "\u2581Syria": 4640,
  "\u2581attachment": 4641,
  "\u2581creatures": 4642,
  "\u2581wronged": 4643,
  "\u2581\u0997\u09a0\u09a8": 4644,
  "\u2581prevent": 4645,
  "\u2581\u09aa\u09b6\u09cd\u099a\u09bf\u09ae": 4646,
  "\u2581\u09af\u09be\u09b9\u09be": 4647,
  "\u2581Nothing": 4648,
  "\u2581USA": 4649,
  "\u2581port": 4650,
  "\u2581\u0997\u09cd\u09b0\u09bf\u0995": 4651,
  "\u2581\u09ad\u09c2\u09ae": 4652,
  "\u2581\u099f\u09be\u0987\u09aa": 4653,
  "\u2581\u09b6\u09b0\u09c0\u0995": 4654,
  "\u2581\u09b6\u09cd\u09b0\u09c7\u09a3\u09c0\u09ac\u09bf\u09ad\u09be\u0997": 4655,
  "\u2581conditions": 4656,
  "\u2581cry": 4657,
  "\u2581gather": 4658,
  "\u2581gold": 4659,
  "\u2581install": 4660,
  "\u2581normal": 4661,
  "\u2581thank": 4662,
  "\u2581pleasure": 4663,
  "\u2581\u09b8\u09c2\u09b0": 4664,
  "\u2581Her": 4665,
  "\u2581\u098f\u09ae\u09a8\u09bf\u09ad\u09be\u09ac\u09c7": 4666,
  "\u2581Leave": 4667,
  "\u2581chose": 4668,
  "\u2581recognize": 4669,
  "\u2581\u09b9\u09cd\u09b0\u09be\u09b8": 4670,
  "\u2581\u0985\u09b8\u09ae\u09cd\u09ad\u09ac": 4671,
  "\u2581\u0989\u09aa": 4672,
  "\u2581\u09aa\u09cd\u09b0\u09b6\u09bf\u0995\u09cd\u09b7\u09a3": 4673,
  "\u2581\u09ac\u09be\u09ac\u09be\u09b0": 4674,
  "\u2581\u09ac\u09bf\u09ad\u09be\u0997": 4675,
  "ant": 4676,
  "\u2581training": 4677,
  "\u2581\u099b\u09be\u0981\u09a6": 4678,
  "\u2581\u09aa\u099b\u09a8": 4679,
  "\u099c\u0997\u09a4\u09c7\u09b0": 4680,
  "\u09af": 4681,
  "\u2581House": 4682,
  "\u2581context": 4683,
  "\u2581daughters": 4684,
  "\u2581\u0985\u09a8\u09c1\u09aa\u09cd\u09b0\u09be\u09a3\u09bf\u09a4": 4685,
  "\u2581\u09b8\u09ce\u0995\u09be\u099c": 4686,
  "ie": 4687,
  "\u2581Forgiving": 4688,
  "\u2581TV": 4689,
  "\u2581approach": 4690,
  "\u2581d": 4691,
  "\u2581election": 4692,
  "\u2581headers": 4693,
  "\u2581plugins": 4694,
  "\u2581positive": 4695,
  "\u2581\u09b8\u0982\u0995\u09c1\u099a\u09bf\u09a4": 4696,
  "It": 4697,
  "\u2581Login": 4698,
  "\u2581helps": 4699,
  "\u2581\u0995\u09be\u09b9\u09bf\u09a8\u09c0": 4700,
  "age": 4701,
  "\u2581village": 4702,
  "\u2581\u0986\u09ac\u09c7\u09a6\u09a8": 4703,
  "\u2581\u09a8\u09c7": 4704,
  "\u2581\u09b8\u09c7\u099f": 4705,
  "\u2581weak": 4706,
  "\u2581\u09a6\u09c3\u09b6\u09cd\u09af": 4707,
  "\u2581\u09ac\u09cd\u09af\u09ac\u09b9\u09be\u09b0\u0995\u09be\u09b0\u09c0\u09a6\u09c7\u09b0": 4708,
  "\u2581Description": 4709,
  "\u2581statement": 4710,
  "\u2581terrible": 4711,
  "\u2581\u09a8\u09c7\u09a8": 4712,
  "\u2581\u09ac\u09bf\u09b7\u09af\u09bc\u0995": 4713,
  "\u2581mine": 4714,
  "\u2581proved": 4715,
  "\u2581\u09aa\u09be\u09b0\u09a4": 4716,
  "\u2581Connection": 4717,
  "\u2581claim": 4718,
  "\u2581leaving": 4719,
  "\u2581\u0987\u09b0\u09be\u09a8\u09c7\u09b0": 4720,
  "\u2581\u0995\u09b0\u09bf\u09ac\u09c7": 4721,
  "\u2581blame": 4722,
  "\u2581released": 4723,
  "\u2581strengthen": 4724,
  "\u2581\u0986\u09b9\u09be\u09b0": 4725,
  "\u2581\u0987\u0989\u09b8\u09c1\u09ab": 4726,
  "\u2581\u09a6\u09cd\u09af\u09be": 4727,
  "\u2581\u09ac\u09b2\u09c7\u099b\u09bf": 4728,
  "\u09b8\u09cd\u09a5": 4729,
  "\u2581Footnote": 4730,
  "\u2581individual": 4731,
  "\u2581practice": 4732,
  "\u2581\u09ab\u09b0\u0993\u09af\u09bc\u09be\u09b0\u09cd\u09a1": 4733,
  "\u2581establish": 4734,
  "\u2581prophecy": 4735,
  "\u2581strive": 4736,
  "\u2581\u098f\u0996\u09a8\u0987": 4737,
  "\u2581p": 4738,
  "\u2581\u0986\u09af\u09bc\u09be\u09a4": 4739,
  "\u2581\u09b0\u09be\u09b6\u09bf\u09af\u09bc\u09be": 4740,
  "\u2581Allow": 4741,
  "\u2581Inc": 4742,
  "\u2581Watch": 4743,
  "\u2581fighting": 4744,
  "\u2581\u09b2\u09bf": 4745,
  "\u2581\u09b8\u09aa\u09cd\u09a4\u09be\u09b9\u09c7": 4746,
  "\u2581Lot": 4747,
  "\u2581\u0985\u09aa\u09b0\u09be\u09a7\u09c0": 4748,
  "\u2581\u09b8\u09be\u09b9\u09b8": 4749,
  "ga": 4750,
  "\u2581\u0995\u09be\u09ab\u09c7\u09b0\u09b0\u09be": 4751,
  "\u2581\u09ae\u09a4\u09c7": 4752,
  "\u2581\u09b7\u09ae\u09a4\u09be": 4753,
  "ta": 4754,
  "\u2581\u09aa\u09be\u09a0\u09bf\u09af\u09bc\u09c7": 4755,
  "\u2581\u09b8\u09c7\u09b8\u09ac": 4756,
  "ca": 4757,
  "os": 4758,
  "\u2581[\u201c": 4759,
  "\u2581\u0989\u09ce\u09b8\u09be\u09b9\u09bf\u09a4": 4760,
  "\u2581\u09a8\u0993": 4761,
  "\u2581Arabic": 4762,
  "\u2581launch": 4763,
  "\u2581\u0986\u09b8\u09ae\u09be\u09a8": 4764,
  "\u2581\u09a1\u09be\u0995": 4765,
  "\u2581Nautilus": 4766,
  "\u2581feeling": 4767,
  "\u2581sends": 4768,
  "\u2581total": 4769,
  "\u2581realize": 4770,
  "\u2581success": 4771,
  "\u2581videos": 4772,
  "\u2581\u09b8\u09ac\u0987": 4773,
  "\u25812013": 4774,
  "\u2581Gardens": 4775,
  "\u2581telling": 4776,
  "\u2581\u0985\u09ac\u09be\u0995": 4777,
  "\u2581\u0998\u09c1\u09b0\u09c7": 4778,
  "\u2581co": 4779,
  "\u2581\u09a6\u09c3\u09b7\u09cd\u099f\u09bf\u09ad\u0999\u09cd\u0997\u09bf": 4780,
  "\u2581\u09a6\u09c7\u0996\u09be\u09a8\u09cb\u09b0": 4781,
  "\u2581\u09aa\u09b0\u09bf\u09a3\u09be\u09ae": 4782,
  "\u2581\u09ab\u09af\u09bc\u09b8\u09be\u09b2\u09be": 4783,
  "\u2581Bar": 4784,
  "\u2581\u098f\u0995\u09a6\u09ae": 4785,
  "\u2581European": 4786,
  "\u2581containing": 4787,
  "\u2581deliver": 4788,
  "\u2581yes": 4789,
  "\u2581\u0985\u09b8\u09cd\u09a4\u09cd\u09b0": 4790,
  "\u2581\u09a1\u09c7": 4791,
  "\u2581\u09a6\u09be\u0981\u09a1\u09bc\u09bf\u09af\u09bc\u09c7": 4792,
  "\u2581\u09aa\u09cd\u09b0\u09a4\u09bf\u09ac\u09c7\u09a6\u09a8": 4793,
  "\u2581\u09ab\u09c7\u09b2\u09ac\u09c7": 4794,
  "\u2581\u09b8\u09be\u09ac\u09b8\u09cd\u0995\u09cd\u09b0\u09be\u0987\u09ac": 4795,
  "\u2581although": 4796,
  "\u2581\u09b8\u09cd\u09ac\u09be\u0997\u09a4\u09ae": 4797,
  "\u2581append": 4798,
  "\u2581pressure": 4799,
  "\u2581\u09a6\u09c7\u0996\u09ac\u09c7": 4800,
  "\u2581Brother": 4801,
  "\u2581\u0988\u09ae\u09be\u09a8\u09a6\u09be\u09b0": 4802,
  "\u2581\u09a4\u09cb\u09b2\u09be\u09b0": 4803,
  "\u2581\u09a6\u09bf\u09b2": 4804,
  "\u2581\u09a6\u09c7\u09ac\u09be\u09b0": 4805,
  "\u2581\u09af\u09c1\u0995\u09cd\u09a4\u09bf": 4806,
  "\u2581described": 4807,
  "\u2581\u09b8\u09cd\u0995\u09cd\u09b0\u09c0\u09a8": 4808,
  "ac": 4809,
  "\u2581Audio": 4810,
  "\u2581battle": 4811,
  "\u2581global": 4812,
  "\u2581protection": 4813,
  "\u2581\u09aa\u09b0\u09bf\u09ac\u09c7\u09b6": 4814,
  "\u2581\u09b0\u09b6\u0982\u09b8\u09be": 4815,
  "\u2581\u09b0\u09c1\u09a4\u09bf": 4816,
  "\u2581Others": 4817,
  "\u2581Thanks": 4818,
  "\u2581confidence": 4819,
  "\u2581conversation": 4820,
  "\u2581\u09a8\u09bf\u0995\u099f\u09ac\u09b0\u09cd\u09a4\u09c0": 4821,
  "\u2581\u09b8\u09c7\u099f\u09be\u0987": 4822,
  "ary": 4823,
  "\u2581MIME": 4824,
  "\u2581helping": 4825,
  "\u2581\u09b8\u09b9\u0995\u09be\u09b0\u09c7": 4826,
  "\u2581angel": 4827,
  "\u2581\u099a\u09c1\u09aa": 4828,
  "\u2581\u09b8\u09be\u09b0\u09cd\u09ad\u09bf\u09b8": 4829,
  "\u2581nice": 4830,
  "\u2581\u0995\u09af\u09bc\u09c7\u0995\u099f\u09be": 4831,
  "\u2581\u099a\u09c7\u09b9\u09be\u09b0\u09be": 4832,
  "\u2581\u09ac\u09b6": 4833,
  "\u2581Selected": 4834,
  "\u2581player": 4835,
  "\u2581\u09a1\u0995\u09c1\u09ae\u09c7\u09a8\u09cd\u099f\u09c7\u09b0": 4836,
  "\u2581Saving": 4837,
  "\u2581wind": 4838,
  "\u2581\u09ac\u09c1\u0995": 4839,
  "\u2581fonts": 4840,
  "\u2581\u09a8\u09bf\u09af\u09bc\u09ae\u09bf\u09a4": 4841,
  "\u09a6\u09bf\u09a8": 4842,
  "\u2581grace": 4843,
  "\u2581\u0989\u09aa\u09b0\u09c7\u09b0": 4844,
  "\u2581allows": 4845,
  "\u2581grant": 4846,
  "\u2581imitate": 4847,
  "\u2581\u09ae\u09cd\u09af\u09be\u09a8\u09c7\u099c\u09be\u09b0": 4848,
  "\u2581\u09b0\u09be\u099c": 4849,
  "\u09b6\u09be": 4850,
  "\u2581behalf": 4851,
  "\u2581movement": 4852,
  "\u2581\u0989\u09b2\u09ae\u09cd\u09ac": 4853,
  "\u2581\u098f\u0995\u09cd\u09b8\u09aa\u09cb\u09b0\u09cd\u099f": 4854,
  "\u2581\u09ac\u09b8\u09cd\u09a4\u09c1\u099f\u09bf": 4855,
  "\u2581\u09b0\u09b9\u09ae\u09a4": 4856,
  "\u2581benefits": 4857,
  "\u2581cell": 4858,
  "\u2581natural": 4859,
  "\u2581warner": 4860,
  "\u2581\u09b8\u09c7\u0996\u09be\u09a8": 4861,
  "\u2581\u09b8\u09cd\u09ac\u09be\u09b8\u09cd\u09a5\u09cd\u09af": 4862,
  "ine": 4863,
  "\u2581September": 4864,
  "\u2581punish": 4865,
  "\u2581standards": 4866,
  "\u2581\u09aa\u09a4": 4867,
  "\u2581\u09ac\u09cb\u09a4\u09be\u09ae": 4868,
  "\u09b7\u09a4\u09bf\u0997": 4869,
  "\u2581encoding": 4870,
  "\u2581exit": 4871,
  "\u2581music": 4872,
  "\u2581\u0995\u09b0\u09cd\u09ae\u09c0": 4873,
  "\u2581\u09ab\u09bf\u09b0\u0986\u0989\u09a8": 4874,
  "Show": 4875,
  "\u09c0\u09b0": 4876,
  "\u2581Knowing": 4877,
  "\u2581humble": 4878,
  "\u2581\u0989\u09ae": 4879,
  "\u2581\u0986\u09a6\u09bf": 4880,
  "\u2581\u099f\u09cd\u09af\u09be\u0997": 4881,
  "\u2581mention": 4882,
  "\u2581official": 4883,
  "\u2581\u0995\u09be\u09b0\u09a8\u09c7": 4884,
  "\u2581\u09aa\u09cd\u09b0\u09a6\u09be\u09a8\u09c7\u09b0": 4885,
  "\u2581\u09b0\u09ae": 4886,
  "\u2581bestowed": 4887,
  "\u2581preach": 4888,
  "\u2581\u0987\u09a4\u09cb\u09ae\u09a7\u09cd\u09af\u09c7": 4889,
  "\u2581\u0995\u09cb\u099f\u09bf": 4890,
  "\u2581\u09ab\u09c7\u09b2\u09cb": 4891,
  "\u2581\u09ac\u09be\u09a8\u09bf\u09af\u09bc\u09c7": 4892,
  "Use": 4893,
  "um": 4894,
  "\u2581al": 4895,
  "\u2581\u09b2\u09be\u0997\u09b2": 4896,
  "\u2581%2": 4897,
  "\u2581train": 4898,
  "\u2581usually": 4899,
  "\u2581\u0993\u09a0\u09c7": 4900,
  "\u2581\u09a6\u09c1\u09b0\u09cd\u09ac\u09b2": 4901,
  "\u2581\u09ad\u09cd\u09b0\u09ae\u09a3": 4902,
  "\u2581\u09af\u09c0\u09b6\u09c1\u09b0": 4903,
  "\u2581invited": 4904,
  "\u2581\u0995\u09c1": 4905,
  "\u2581\u09b8\u09c1\u09ac\u09bf\u09a7\u09be": 4906,
  "\u099f\u09be\u0995\u09c7": 4907,
  "\u09a6\u09bf": 4908,
  "\u2581October": 4909,
  "\u2581Outlook": 4910,
  "\u2581activists": 4911,
  "\u2581heavy": 4912,
  "\u2581\u0985\u09ad\u09bf\u09ad\u09be\u09ac\u0995": 4913,
  "\u2581\u09a7\u09be\u09b0\u09a3\u0995\u09be\u09b0\u09c0": 4914,
  "\u2581\u09aa\u09cd\u09b0\u09a4\u09bf\u09a8\u09bf\u09a7\u09bf": 4915,
  "\u2581\u09ac\u09be\u0987\u09ac\u09c7\u09b2\u09c7": 4916,
  "\u2581Welcome": 4917,
  "\u2581length": 4918,
  "\u2581manner": 4919,
  "\u09c2": 4920,
  "\u09e9": 4921,
  "\u2581pleased": 4922,
  "\u2581\u099a\u09cb\u0996\u09c7\u09b0": 4923,
  "gt": 4924,
  "\u0995\u09cd\u09b8": 4925,
  "\u2581French": 4926,
  "\u2581joined": 4927,
  "\u2581\u098f\u09b2\u09be\u0995\u09be\u09b0": 4928,
  "\u2581\u09aa\u09cd\u09b0\u09a3\u09be\u09b2\u09c0": 4929,
  "\u2581arrived": 4930,
  "\u2581\u099a\u09c7\u0995": 4931,
  "ad": 4932,
  "\u09ae\u09c7": 4933,
  "\u09b2\u0995": 4934,
  "\u2581prostrate": 4935,
  "\u2581\u098f\u0995\u09a4": 4936,
  "\u2581\u09a4\u09bf\u09a4\u09c7": 4937,
  "\u25812015": 4938,
  "\u2581Scriptural": 4939,
  "\u2581Witness": 4940,
  "\u2581requested": 4941,
  "\u2581\u098f\u0995\u09cd\u09b8\u09aa\u09cd\u09b0\u09c7\u09b6\u09a8": 4942,
  "\u2581\u09a4\u09c1\u09b2\u09a4\u09c7": 4943,
  "\u2581\u09b8\u09b9\u09cd\u09af": 4944,
  "\u2581\u09eb\u09e6": 4945,
  "\u2581junk": 4946,
  "\u2581privilege": 4947,
  "\u2581\u099c\u09c0\u09ac\u09a8\u0995\u09c7": 4948,
  "\u2581\u09aa\u09cd\u09b0\u0995\u09be\u09b6\u09a8\u09be": 4949,
  "\u2581\u09ad\u09b0\u09b8\u09be": 4950,
  "\u2581aid": 4951,
  "\u2581\u0985\u09a8\u09b2\u09be\u0987\u09a8\u09c7": 4952,
  "\u2581\u0985\u09aa\u09b0\u09c7\u09b0": 4953,
  "\u2581\u0986\u09b2\u09cb": 4954,
  "\u2581\u09a7\u09b0\u09a4\u09c7": 4955,
  "\u2581Switch": 4956,
  "\u2581Was": 4957,
  "\u2581student": 4958,
  "\u2581\u0995\u09b0\u09bf\u09af\u09bc\u09be": 4959,
  "\u258110:": 4960,
  "\u2581Zoom": 4961,
  "\u2581\u0986\u09a6\u09be\u09af\u09bc": 4962,
  "\u2581\u0997\u09cd\u09b0\u09c7\u09ab\u09a4\u09be\u09b0": 4963,
  "\u2581attend": 4964,
  "\u2581pioneer": 4965,
  "\u2581profile": 4966,
  "\u258150": 4967,
  "\u2581Whatever": 4968,
  "\u2581characters": 4969,
  "\u2581\u09ae\u09be\u09a8\u09ac\u099c\u09be\u09a4\u09bf\u09b0": 4970,
  "\u2581\u09af\u09c7\u0993": 4971,
  "\u2581\u09b8\u09ae\u09af\u09bc\u09b8\u09c0\u09ae\u09be": 4972,
  "\u09a4\u09cb\u09ae\u09be\u09b0": 4973,
  "\u2581vital": 4974,
  "\u2581\u0986\u0995\u09be\u09b0\u09c7": 4975,
  "\u2581\u0995\u09cd\u09af\u09be\u09ae\u09c7\u09b0\u09be": 4976,
  "\u2581News": 4977,
  "\u2581environment": 4978,
  "\u2581garden": 4979,
  "\u2581\u0996\u09c7\u09b2\u09be\u09af\u09bc": 4980,
  "\u2581\u09af\u09be\u09ac\u09cb": 4981,
  "Delete": 4982,
  "\u2581\u0986\u09b8\u099b\u09bf": 4983,
  "\u2581\u09a6\u09be\u0981\u09a1\u09bc\u09be\u0993": 4984,
  "\u2581\u09ae\u09c1\u09b9\u09c2\u09b0\u09cd\u09a4\u09c7": 4985,
  "\u2581updates": 4986,
  "\u2581\u09ad\u09b0": 4987,
  "\u2581\u09ae\u09a8\u09cb\u09a8\u09c0\u09a4": 4988,
  "\u2581appreciate": 4989,
  "\u2581causes": 4990,
  "\u2581sacred": 4991,
  "\u2581\u099f\u09bf\u09b0": 4992,
  "\u2581\u09aa\u09cd\u09b0\u09af\u09c1\u0995\u09cd\u09a4\u09bf": 4993,
  "\u2581\u09b2": 4994,
  "\u2581Position": 4995,
  "\u2581becomes": 4996,
  "\u2581treat": 4997,
  "\u2581Western": 4998,
  "\u2581backend": 4999,
  "\u2581endure": 5000,
  "\u2581heed": 5001,
  "\u2581\u0986\u09b8\u09c7\u09a8": 5002,
  "\u2581\u099c\u09c7": 5003,
  "\u2581\u09ac\u099b\u09b0\u09c7": 5004,
  "\u2581\u09b0\u09bf\u09a4": 5005,
  "\u0986\u0989\u099f": 5006,
  "\u2581Also": 5007,
  "\u2581posted": 5008,
  "\u2581\u09ae\u09a3\u09cd\u09a1\u09b2\u09c0\u09a4\u09c7": 5009,
  "\u09ac\u09bf\u09a6": 5010,
  "\u2581double": 5011,
  "\u2581\u098f\u09a4\u09cb": 5012,
  "\u2581\u099b\u09cb\u099f\u09cd\u099f": 5013,
  "\u2581\u09ac\u09cd\u09af\u09ac\u09b9\u09be\u09b0\u0995\u09be\u09b0\u09c0\u09b0\u09be": 5014,
  "\u2581\u09b8\u0982\u09af\u09c1\u0995\u09cd\u09a4\u09bf": 5015,
  "\u2581\u09b8\u09c1\u0996\u09c0": 5016,
  "\u2581\u09b8\u09cd\u09ac\u09be\u0995\u09cd\u09b7\u09b0\u09c7\u09b0": 5017,
  "day": 5018,
  "se": 5019,
  "\u099b\u09bf\u09b2\u09c7\u09a8": 5020,
  "\u2581committed": 5021,
  "\u2581disease": 5022,
  "\u2581seized": 5023,
  "\u2581\u0987\u09a8\u09cd\u099f\u09be\u09b0\u09ab\u09c7\u09b8": 5024,
  "\u2581\u0987\u09af\u09bc\u09cb\u09ac": 5025,
  "\u2581\u09aa\u09b0\u0993\u09af\u09bc\u09be\u09b0\u09a6\u09c7\u0997\u09be\u09b0": 5026,
  "\u2581\u09aa\u09be\u09a0\u09be\u09a4\u09c7": 5027,
  "\u2581\u09b0\u09be\u099c\u09a7\u09be\u09a8\u09c0": 5028,
  "\u2581\u09b0\u09c7\u09b0": 5029,
  "\u2581chapter": 5030,
  "\u2581\u0986\u09a6\u09ae": 5031,
  "\u2581\u09a7\u09c8\u09b0": 5032,
  "\u2581\u09ac\u09bf\u09b6\u09bf\u09b7\u09cd\u099f": 5033,
  "\u2581\u0986\u09ac\u09be\u09b0\u0993": 5034,
  "\u2581\u09ac\u09bf\u09ac\u09be\u09b9": 5035,
  "\u2581\u09af\u09ac\u09be\u09a6\u09c0": 5036,
  "\u2581Listen": 5037,
  "\u2581experienced": 5038,
  "\u2581fell": 5039,
  "\u2581\u09a7\u09be\u09a8": 5040,
  "\u2581\u09aa\u09cd\u09b0\u09cb\u0997\u09cd\u09b0\u09be\u09ae\u099f\u09bf": 5041,
  "\u25813.": 5042,
  "\u2581\u09a6\u09be\u09ac\u09c0": 5043,
  "\u2581packages": 5044,
  "\u2581relatives": 5045,
  "\u2581\u099b\u0995": 5046,
  "\u2581\u09a8\u09cd\u09af\u09be\u09af\u09bc": 5047,
  "\u2581behold": 5048,
  "\u2581finally": 5049,
  "\u2581topic": 5050,
  "\u2581\u09ac\u0995\u09cd\u09b8": 5051,
  "\u2581\u09b8\u099a\u09c7\u09a4\u09a8": 5052,
  "\u25815.": 5053,
  "\u2581\u0985\u09a8\u09cd\u09af\u09a4\u09ae": 5054,
  "\u2581\u099b\u09be\u09a1\u09bc\u09be\u0987": 5055,
  "\u2581\u09ad\u09ac\u09bf\u09b7\u09cd\u09af\u09a6\u09cd\u09ac\u09be\u09a3\u09c0": 5056,
  "\u2581\u09ad\u09c0\u09a4": 5057,
  "Windows": 5058,
  "\u258110.": 5059,
  "\u2581Street": 5060,
  "\u2581\u098f\u09a4\u099f\u09be": 5061,
  "ful": 5062,
  "\u098f\u09b2": 5063,
  "\u2581Human": 5064,
  "\u2581\u0993\u09af\u09bc\u09c7\u09ac\u09b8\u09be\u0987\u099f": 5065,
  "\u2581\u09e9\u09ea": 5066,
  "\u09b8\u09c1": 5067,
  "\u2581goal": 5068,
  "\u2581\u0998\u099f\u09a8\u09be\u09af\u09bc": 5069,
  "\u2581\u099c\u09ae\u09be": 5070,
  "one": 5071,
  "\u2581International": 5072,
  "\u2581Russia": 5073,
  "\u2581Shall": 5074,
  "\u2581prayed": 5075,
  "\u2581leader": 5076,
  "\u2581Hold": 5077,
  "\u2581congregations": 5078,
  "\u2581expressed": 5079,
  "\u2581\u09aa\u0995\u09cd\u09b7": 5080,
  "\u2581\u09ac\u09be\u0995\u09cd\u09b8\u09c7": 5081,
  "\u2581\u09af\u09c1\u09a6\u09cd\u09a7\u09c7\u09b0": 5082,
  "\u09be\u099b\u09c7": 5083,
  "\u2581Signature": 5084,
  "\u2581attempt": 5085,
  "\u2581\u09a6\u09bf\u09b7": 5086,
  "\u2581\u09ac\u09bf\u09ad": 5087,
  "\u2581\u09b8\u09b0\u09cd\u09ac\u09a8\u09bf\u09ae\u09cd\u09a8": 5088,
  "\u2581\u09b8\u09cd\u0995\u09cd\u09af\u09be\u09a8": 5089,
  "\u2581closed": 5090,
  "\u2581notice": 5091,
  "\u2581\u09ac\u09b2\u09c7\u099b\u09bf\u09b2\u09be\u09ae": 5092,
  "\u2581\u09b7\u09ae": 5093,
  "despite": 5094,
  "\u0995\u09be\u09b0\u09c0\u09b0\u09be": 5095,
  "\u2581arguments": 5096,
  "\u2581earned": 5097,
  "\u2581\u0986\u09a8\u09c1\u0997\u09a4": 5098,
  "\u09b2\u09be\u09b0": 5099,
  "\u2581influence": 5100,
  "\u2581\u09aa\u09bf\u09a4\u09be\u09b0": 5101,
  "\u2581\u09b8\u09cd\u0995\u09c1\u09b2\u09c7": 5102,
  "\u099f\u09c7\u0995\u09cd\u09b8\u099f": 5103,
  "\u2581buttons": 5104,
  "\u2581ears": 5105,
  "\u2581pixels": 5106,
  "\u2581\u099c\u09a8\u09c7\u09b0": 5107,
  "\u2581\u09b9\u09be\u09af\u09bc": 5108,
  "%%": 5109,
  "\u099b\u09bf\u09b2\u09be\u09ae": 5110,
  "\u09a5\u09be\u09af\u09bc": 5111,
  "\u2581Mar": 5112,
  "\u2581avail": 5113,
  "\u2581\u09ac\u09be\u0997\u09be\u09a8": 5114,
  "\u2581youth": 5115,
  "\u2581\u09a8\u09bf\u09af\u09c1\u0995\u09cd\u09a4": 5116,
  "\u09a7\u09b0\u09a8\u09c7\u09b0": 5117,
  "\u09a8\u09c7\u09b0": 5118,
  "\u2581Central": 5119,
  "\u2581Memo": 5120,
  "\u2581\u0995\u09be\u099c\u0997\u09c1\u09b2\u09cb": 5121,
  "\u2581\u09a6\u09bf\u09ac\u09c7\u09a8": 5122,
  "\u2581%(": 5123,
  "\u2581\u0989\u09a6\u09cd\u09a7\u09c3\u09a4\u09bf": 5124,
  "\u2581\u0996\u09cd\u09b0\u09bf\u09b8\u09cd\u099f": 5125,
  "\u2581\u099c\u09be\u09a8\u09be\u09a8": 5126,
  "\u2581February": 5127,
  "\u2581Musa": 5128,
  "\u2581sometimes": 5129,
  "\u2581\u09aa\u09be\u09a4": 5130,
  "Wis": 5131,
  "\u2581GConf": 5132,
  "\u2581courage": 5133,
  "\u2581pre": 5134,
  "\u2581\u0986\u09ae\u09c7\u09b0\u09bf\u0995\u09be\u09b0": 5135,
  "\u2581\u099a\u09b0\u09ae": 5136,
  "\u2581answered": 5137,
  "\u2581\u0995\u09be\u09b0\u09cd\u09af": 5138,
  "\u2581\u09aa\u09cc\u09b2\u09c7\u09b0": 5139,
  "\u2581\u09ad\u09be\u09b2\u09ac\u09be\u09b8\u09be": 5140,
  "\u2581\u09b8\u09c7\u0987\u099c\u09a8": 5141,
  "Type": 5142,
  "ru": 5143,
  "\u2581appears": 5144,
  "\u2581block": 5145,
  "\u2581\u09aa\u09cd\u09b0\u09a6\u09b0\u09cd\u09b6\u0995": 5146,
  "im": 5147,
  "\u2581Bo": 5148,
  "\u2581assignment": 5149,
  "\u2581cases": 5150,
  "\u2581crowd": 5151,
  "\u2581fair": 5152,
  "\u2581favour": 5153,
  "\u2581\u099b\u09be\u09a4\u09cd\u09b0": 5154,
  "\u2581\u09b8\u09ae\u0997\u09cd\u09b0": 5155,
  "\u2581North": 5156,
  "\u2581\u099e\u09be\u09a4": 5157,
  "\u2581\u09b0\u09ae\u09be\u09a3": 5158,
  "\u2581Google": 5159,
  "\u2581Love": 5160,
  "\u2581War": 5161,
  "\u2581latest": 5162,
  "\u2581modern": 5163,
  "\u2581successful": 5164,
  "\u2581\u09a6\u09bf\u09b2\u09c7": 5165,
  "\u099b\u09cb": 5166,
  "\u2581addresses": 5167,
  "\u2581ship": 5168,
  "\u2581\u098f\u09a8": 5169,
  "\u2581\u09b8\u09be\u09b0": 5170,
  "\u25817.": 5171,
  "\u2581aside": 5172,
  "\u2581branch": 5173,
  "\u2581worry": 5174,
  "\u2581\u09a1\u09bf\u09ac\u09be\u0997": 5175,
  "\u2581\u09ae\u09cd\u09af\u09be\u09aa": 5176,
  "\u09a7": 5177,
  "\u2581Japanese": 5178,
  "\u2581\u09aa\u09c7\u0987\u09a8": 5179,
  "\u2581\u09ac\u0995": 5180,
  "\u2581TO": 5181,
  "\u2581nature": 5182,
  "\u2581steps": 5183,
  "\u2581\u09ae\u09a4\u09be\u09ae\u09a4": 5184,
  "\u2581Islam": 5185,
  "\u2581performed": 5186,
  "\u2581street": 5187,
  "\u2581\u09a1\u09bf\u09b8\u09cd\u0995\u099f\u09bf": 5188,
  "\u2581\u09a8\u09bf\u09b6\u09cd\u099a\u09af\u09bc": 5189,
  "\u2581\u09aa\u09be\u099a\u09cd\u099b\u09bf": 5190,
  "\u09ad\u09be\u09b0": 5191,
  "\u2581Forward": 5192,
  "\u2581Whoever": 5193,
  "\u2581\u0985\u09ad\u09be\u09ac": 5194,
  "\u2581\u0996\u09b8\u09a1\u09bc\u09be": 5195,
  "\u2581\u09b8\u0995\u09b2\u09c7": 5196,
  "\u099f\u09c7": 5197,
  "\u2581\u09a4\u09be\u09b9\u09be\u09a6\u09c7\u09b0": 5198,
  "\u2581\u09aa\u09b0\u09bf\u09b8\u0982\u0996\u09cd\u09af\u09be\u09a8": 5199,
  "\u2581\u09b9\u09a4\u09be\u09b6": 5200,
  "MIME": 5201,
  "\u2581November": 5202,
  "\u2581tweeted": 5203,
  "\u2581\u09a5\u09be\u09ae\u09cb": 5204,
  "\u2581\u09b9\u09b0\u09ab": 5205,
  "\u2581Preview": 5206,
  "\u2581gotta": 5207,
  "\u2581guess": 5208,
  "\u2581remained": 5209,
  "\u2581welcome": 5210,
  "\u2581\u09a8\u09a4": 5211,
  "\u2581\u09ac\u09c7\u09b2\u09be\u09af\u09bc": 5212,
  "\u2581range": 5213,
  "\u2581responsible": 5214,
  "\u2581Project": 5215,
  "\u2581lesson": 5216,
  "\u2581\u0985\u09a8\u09c1\u09ae\u09cb\u09a6\u09bf\u09a4": 5217,
  "\u2581\u09aa\u09c7\u099c": 5218,
  "\u09af\u09bc\u09be\u09b0": 5219,
  "\u2581\u0997\u09a3": 5220,
  "\u2581\u09a7\u09c8\u09b0\u09cd\u09af": 5221,
  "\u2581\u09ae\u09be\u09a5\u09be\u09af\u09bc": 5222,
  "Copy": 5223,
  "ot": 5224,
  "\u2581fruits": 5225,
  "\u2581girls": 5226,
  "\u2581\u09a4\u09cb\u09b2\u09c7": 5227,
  "\u2581\u09af\u09be\u0995\u09be\u09a4": 5228,
  "\u099e\u09be\u09ae\u09af\u09bc": 5229,
  "\u2581GroupWise": 5230,
  "\u2581\u0997\u09bf\u09af\u09bc\u09c7\u099b\u09bf\u09b2\u09be\u09ae": 5231,
  "\u2581\u09b0\u09a4\u09bf\u09b6": 5232,
  "\u2581\u09b8\u09be\u09a8\u09cd\u09a4\u09cd\u09ac\u09a8\u09be": 5233,
  "\u2581lower": 5234,
  "\u2581\u09ae\u09c1\u09b8\u09b2\u09bf\u09ae": 5235,
  "\u2581\u09b8\u0982\u09b6\u09cb\u09a7\u09a8": 5236,
  "\u2581\u099f\u0997\u09b2": 5237,
  "\u2581\u09ab\u09a8\u09cd\u099f\u09c7\u09b0": 5238,
  "\u2581\u09ac\u09cb\u09ae\u09be": 5239,
  "\u2581\u0985\u09a7": 5240,
  "\u2581Burning": 5241,
  "\u2581meant": 5242,
  "\u2581\u09a6\u09be\u09ae": 5243,
  "\u2581\u09ac\u09bf\u09a6\u09be\u09af\u09bc": 5244,
  "\u2581Ka": 5245,
  "\u2581State": 5246,
  "\u2581widget": 5247,
  "\u2581\u0997\u09c7\u099b\u09c7\u09a8": 5248,
  "\u2581\u0998\u09c1\u09ae": 5249,
  "\u2581\u09a4\u09cb\u09ae\u09be\u09a6\u09bf\u0997\u0995\u09c7": 5250,
  "uk": 5251,
  "\u2581dream": 5252,
  "\u2581\u0997\u09a8\u09cd\u09a4\u09ac\u09cd\u09af": 5253,
  "\u2581\u09b0\u09c1\u09ae": 5254,
  "\u2581Directory": 5255,
  "\u2581Trash": 5256,
  "\u2581buy": 5257,
  "\u2581\u0995\u09c7\u09a8\u09cd\u09a6\u09cd\u09b0": 5258,
  "wise": 5259,
  "\u2581CA": 5260,
  "\u2581worldwide": 5261,
  "\u2581\u09aa\u09be\u09b0\u09cd\u09a5\u0995\u09cd\u09af": 5262,
  "\u2581\u09b8\u09ae\u09be\u09b2\u09cb\u099a\u09a8\u09be": 5263,
  "%%)": 5264,
  "\u2581insert": 5265,
  "\u2581players": 5266,
  "\u2581\u09b8\u0982\u0995\u09b2\u09a8": 5267,
  "\u099f\u09be\u0987": 5268,
  "\u25818.": 5269,
  "\u2581Application": 5270,
  "\u2581mate": 5271,
  "\u2581\u0985\u0997\u09cd\u09b0\u09be\u09b9\u09cd\u09af": 5272,
  "\u2581\u098f\u0995\u09a4\u09cd\u09b0\u09bf\u09a4": 5273,
  "\u2581\u09a7\u09be\u09b0\u09be": 5274,
  "\u2581\u09b2\u09bf\u0996\u09c7\u099b\u09c7": 5275,
  "Send": 5276,
  "like": 5277,
  "\u2581Hebrews": 5278,
  "\u2581sees": 5279,
  "\u2581\u0985\u09b9\u0982\u0995\u09be\u09b0": 5280,
  "\u2581\u0989\u09ad\u09af\u09bc\u09c7\u09b0": 5281,
  "\u2581\u099c\u09be\u09a8\u09bf\u09af\u09bc\u09c7\u099b\u09c7": 5282,
  "\u2581backup": 5283,
  "\u2581\u0986\u0997\u09a4": 5284,
  "\u2581\u09aa\u09be\u09b2\u09bf\u09af\u09bc\u09c7": 5285,
  "\u2581\u09aa\u09cd\u09b0\u099c\u09cd\u099e\u09be": 5286,
  "\u2581\u09ac\u09bf\u09af\u09bc\u09c7\u09b0": 5287,
  "\u09aa\u09c7": 5288,
  "\u2581Genesis": 5289,
  "\u2581keeping": 5290,
  "\u2581\u0989\u09aa\u09be\u09a6\u09be\u09a8": 5291,
  "\u2581\u09ac\u09b2\u09ac\u09c7\u0983": 5292,
  "\u2581\u09ac\u09bf\u09b6\u09cd\u09ac\u09be\u09b8\u09c7\u09b0": 5293,
  "\u2581\u09b9\u09c1\u0995\u09c1\u09ae": 5294,
  "\u258111:": 5295,
  "\u2581Local": 5296,
  "\u2581\u0998\u099f\u09ac\u09c7": 5297,
  "\u2581\u099c\u09be\u09a8\u09be\u09a8\u09cb\u09b0": 5298,
  "\u2581\u09ac\u09b2\u09b2\u09be\u09ae": 5299,
  "\u2581\u09b9\u09be\u0987": 5300,
  "\u2581\u099a\u09bf\u0995\u09bf\u09ce\u09b8\u09be": 5301,
  "q": 5302,
  "\u2581magic": 5303,
  "\u2581\u0995\u09cd\u09b7\u09c1\u09a6\u09cd\u09b0": 5304,
  "\u2581\u09aa\u09b0\u09bf\u09ac\u09b0\u09cd\u09a4\u09a8\u0997\u09c1\u09b2\u09bf": 5305,
  "\u09b6\u09a8": 5306,
  "\u25813,": 5307,
  "\u2581adds": 5308,
  "\u2581\u0986\u09b0\u09c7\u0995\u099f\u09bf": 5309,
  "\u2581\u09a6\u09bf\u09ac\u09b8": 5310,
  "\u2581\u09a7\u09b0\u09a3\u09c7\u09b0": 5311,
  "\u2581\u09aa\u09cd\u09b0\u09be\u09a3": 5312,
  "\u2581\u09ac\u09af\u09bc\u09b8\u09cd\u0995": 5313,
  "\u2581\u09b8\u09ae\u09cd\u09aa\u09cd\u09b0\u09a6\u09be\u09af\u09bc\u09c7\u09b0": 5314,
  "\u2581grieve": 5315,
  "\u2581submit": 5316,
  "\u2581witnesses": 5317,
  "\u0993\u09af\u09bc\u09be": 5318,
  "\u2581blocks": 5319,
  "\u2581retrieve": 5320,
  "\u2581\u099a\u09be": 5321,
  "\u2581\u09a6\u09c7\u0996\u09bf\u09af\u09bc\u09c7\u099b\u09bf\u09b2\u09c7\u09a8": 5322,
  "\u2581\u09b2\u09bf\u0996\u09bf\u09a4": 5323,
  "ial": 5324,
  "\u09a6\u09c7\u09b0\u0995\u09c7": 5325,
  "\u2581ISO": 5326,
  "\u2581walking": 5327,
  "\u2581\u09aa\u09b0\u09bf\u09b8\u09cd\u09a5\u09bf\u09a4\u09bf\u09b0": 5328,
  "\u2581\u09ac\u09bf\u09a8\u09cd\u09af\u09be\u09b8\u09c7": 5329,
  "\u2581develop": 5330,
  "\u2581method": 5331,
  "\u2581tomorrow": 5332,
  "\u2581\u0986\u0981\u0995\u09be": 5333,
  "\u2581\u09a4\u09c1\u09b0": 5334,
  "\u2581\u09aa\u09cd\u09b0\u09be\u09a5\u09ae\u09bf\u0995": 5335,
  "\u2581\u09ac\u09bf\u099a": 5336,
  "dir": 5337,
  "\u2581loves": 5338,
  "\u2581\u09ac\u09b2\u09c7\u0983": 5339,
  "ish": 5340,
  "ty": 5341,
  "\u2581Symbol": 5342,
  "\u2581\u0985\u099a\u09bf\u09b0\u09c7\u0987": 5343,
  "\u2581\u09a6\u09c8\u09b0\u09cd\u0998\u09cd\u09af": 5344,
  "\u2581\u09ac\u09cd\u09af\u09be\u09aa\u0995": 5345,
  "\u2581National": 5346,
  "\u2581gets": 5347,
  "\u2581interested": 5348,
  "\u2581observe": 5349,
  "\u2581price": 5350,
  "\u2581\u0998\u099f\u09c7\u099b\u09bf\u09b2": 5351,
  "\u2581\u09ae\u09c1\u09b8\u09b2\u09ae\u09be\u09a8": 5352,
  "\u2581\u09b8\u09ac\u09c1\u099c": 5353,
  "\u099e\u09c7\u09b8": 5354,
  "\u2581Hence": 5355,
  "\u2581\u09a8\u09c7\u09ae\u09c7": 5356,
  "\u2581\u09b9\u09c3\u09a6\u09af\u09bc\u09c7": 5357,
  "Help": 5358,
  "\u2581\u0986\u09af\u09bc\u09cb\u099c\u09a8": 5359,
  "\u2581\u09aa\u09be\u09a0\u09be\u09a8": 5360,
  "\u2581\u09b0\u09be\u09af\u09bc": 5361,
  "\u2581\u09b6\u09c2\u09a3\u09cd\u09af": 5362,
  "\u2581tells": 5363,
  "\u2581\u0996\u09cd\u09b0\u09bf\u09b8\u09cd\u099f\u09be\u09a8\u09b0\u09be": 5364,
  "\u2581\u09b0\u09be\u09ae": 5365,
  "\u2581\u09f7": 5366,
  "cal": 5367,
  "\u09b0\u09be\u09a3\u0995\u09be\u09b0\u09c0": 5368,
  "\u09cd\u099f": 5369,
  "\u2581MA": 5370,
  "\u2581millions": 5371,
  "\u2581offspring": 5372,
  "\u2581\u09ae\u09c1\u09ae\u09bf\u09a8\u0997\u09a3": 5373,
  "\u2581\u09b8\u09b0\u09ac\u09b0\u09be\u09b9": 5374,
  "\u0995\u09bf\u099b\u09c1\u09b0": 5375,
  "\u0995\u09cd": 5376,
  "\u201d.": 5377,
  "\u2581cattle": 5378,
  "\u2581\u09ad\u09be\u09ac": 5379,
  "\u2581\u09b8\u09cb\u09a8\u09be": 5380,
  "\u2581streets": 5381,
  "\u2581\u098f\u09b0\u09c2\u09aa": 5382,
  "\u2581\u09a6\u09c7\u0996\u09c7\u099b": 5383,
  "\u2581\u09aa\u09be\u09a6\u099f\u09c0\u0995\u09be": 5384,
  "\u2581\u09aa\u09c3\u09a5\u09bf\u09ac\u09c0\u0995\u09c7": 5385,
  "\u2581\u09aa\u09cd\u09b0\u09ac\u09a8\u09cd\u09a7\u09c7": 5386,
  "\u2581\u09ae\u09be\u09b0\u09cd\u099a": 5387,
  "ting": 5388,
  "\u2581Once": 5389,
  "\u2581\u0986\u09b9\u09a4": 5390,
  "\u2581\u09a6\u09c3\u09b7\u09cd\u099f\u09bf": 5391,
  "\u2581Service": 5392,
  "\u2581carried": 5393,
  "\u2581marry": 5394,
  "\u2581separate": 5395,
  "\u2581uses": 5396,
  "\u2581\u09ae\u09b0\u09bf\u09af\u09bc\u09ae": 5397,
  "\u2581\u09b8\u09be\u09b9\u09c7\u09ac": 5398,
  "\u09ae\u09cd\u09af\u09be\u09a8": 5399,
  "\u2581Filter": 5400,
  "\u2581base": 5401,
  "\u2581\u09ae\u09cc\u09b2\u09bf\u0995": 5402,
  "\u2581\u09b0\u09cb\u0997": 5403,
  "\u2581\u09b8\u09cd\u0995\u09c1\u09b2": 5404,
  "\u09ac\u09cd\u09af\u09b8\u09cd\u09a4": 5405,
  "\u2581legal": 5406,
  "\u2581mark": 5407,
  "\u2581rejoice": 5408,
  "\u2581\u09a8\u09bf\u099a\u09c7\u09b0": 5409,
  "ci": 5410,
  "\u09ae\u09c1": 5411,
  "\u2581continues": 5412,
  "\u2581\u0985\u09a8\u09c1\u09ae\u09be\u09a8": 5413,
  "\u258111.": 5414,
  "\u2581remaining": 5415,
  "\u2581\u09ac\u09be\u09ae": 5416,
  "Search": 5417,
  "\u2581hate": 5418,
  "\u2581\u09a5\u09be\u0995\u09c1\u09a8": 5419,
  "\u2581\u09aa\u09cd\u09b0\u09ac\u09a8\u09cd\u09a7": 5420,
  "\u2581\u09b8\u09ab\u09b2\u0995\u09be\u09ae": 5421,
  "\u2581Yahoo": 5422,
  "\u2581becoming": 5423,
  "\u2581killing": 5424,
  "\u2581\u09a8\u09bf\u099c\u09c7\u09a6\u09c7\u09b0\u0995\u09c7": 5425,
  "\u2581\u09ae\u09be\u09a7": 5426,
  "\u2581leading": 5427,
  "\u2581w": 5428,
  "\u2581\u09b6\u09c7\u09b2": 5429,
  "\u2581Title": 5430,
  "\u2581\u0985\u09ac\u09a7\u09bf": 5431,
  "\u2581\u09aa\u09a3": 5432,
  "\u2581\u09b8\u09c7\u099c\u09a6\u09be": 5433,
  "\u2581Previous": 5434,
  "\u2581TRUE": 5435,
  "\u2581failure": 5436,
  "\u2581\u0985\u09a7\u09c0\u09a8": 5437,
  "\u2581\u0996\u09c7\u09af\u09bc\u09be\u09b2": 5438,
  "\u2581\u09a4\u09be\u0995\u09bf\u09af\u09bc\u09c7": 5439,
  "\u2581\u09b8\u09ab\u09b2\u09ad\u09be\u09ac\u09c7": 5440,
  "\u25817:": 5441,
  "\u2581Jewish": 5442,
  "\u2581conscience": 5443,
  "\u2581crime": 5444,
  "\u2581answers": 5445,
  "\u2581\u0985\u09ac\u09b2\u09a8": 5446,
  "\u2581\u09a6\u09be\u09af\u09bc\u09c0": 5447,
  "\u2581\u09ae\u09a1\u09bf\u0989\u09b2": 5448,
  "\u2581\u09ae\u09c2\u09b8\u09be\u0995\u09c7": 5449,
  "\u2581\u09b8\u09a8\u09cd\u09a7\u09be\u09a8": 5450,
  "\u099a\u09be\u09b0": 5451,
  "\u2581Saul": 5452,
  "\u2581Sort": 5453,
  "\u2581waste": 5454,
  "\u2581worth": 5455,
  "ak": 5456,
  "\u2581Browser": 5457,
  "\u2581PKCS": 5458,
  "\u2581marked": 5459,
  "\u2581stream": 5460,
  "\u2581tongue": 5461,
  "\u2581trees": 5462,
  "\u2581\u099c\u09be\u09a8\u09a4\u09be\u09ae": 5463,
  "\u2581\u099c\u09c1\u09a8": 5464,
  "\u2581\u09aa\u09b0\u09bf\u09a4\u09cd\u09af\u09be\u0997": 5465,
  "\u2581\u09ae\u09be\u09a8\u09c1\u09b7\u09a6\u09c7\u09b0": 5466,
  "\u2581\u09b8\u0982\u09b8\u09cd\u09a5\u09be": 5467,
  "ize": 5468,
  "\u2581Automatically": 5469,
  "\u2581Bring": 5470,
  "\u2581fixed": 5471,
  "\u2581frame": 5472,
  "\u2581target": 5473,
  "\u2581\u099a\u09be\u09b2\u09be\u09a8\u09cb\u09b0": 5474,
  "\u09a1\u09be": 5475,
  "\u2581Roman": 5476,
  "\u2581closer": 5477,
  "\u2581excellent": 5478,
  "\u2581identify": 5479,
  "land": 5480,
  "\u2581authenticate": 5481,
  "\u2581cancelled": 5482,
  "\u2581extreme": 5483,
  "\u2581\u098f\u099b\u09be\u09a1\u09bc\u09be\u0993": 5484,
  "\u2581\u09b8\u09be\u09b0\u09b8\u0982\u0995\u09cd\u09b7\u09c7\u09aa": 5485,
  "\u2581\u09e8\u09e6\u09e7\u09e8": 5486,
  "\u098f\u09b8": 5487,
  "\u2581Follow": 5488,
  "\u2581hundred": 5489,
  "\u2581moral": 5490,
  "\u2581symbolic": 5491,
  "\u2581\u0995\u09b0\u09cd\u09ae\u0995\u09cd\u09b7\u09c7\u09a4\u09cd\u09b0": 5492,
  "\u2581\u09b9\u09be\u09b0\u09be\u09ae": 5493,
  "based": 5494,
  "\u2581charge": 5495,
  "\u2581\u09b8\u09c1\u09b8\u0982\u0997\u09a4\u09bf": 5496,
  "\u2581portion": 5497,
  "\u2581\u0995\u09cd\u09b0\u09ae": 5498,
  "\u2581\u09b6\u09cb\u09a8\u09be": 5499,
  "God": 5500,
  "\u09a4\u09cd\u09ac": 5501,
  "\u2581Colour": 5502,
  "\u2581ended": 5503,
  "\u2581falsehood": 5504,
  "\u2581learning": 5505,
  "\u2581vCard": 5506,
  "\u2581\u09a5\u09c7\u0995\u09c7\u0993": 5507,
  "\u2581\u0985\u099c\u09cd\u099e\u09be\u09a4": 5508,
  "\u2581\u0995\u09c7\u09af\u09bc\u09be\u09ae\u09a4\u09c7\u09b0": 5509,
  "\u2581\u09a8\u09bf\u0989\u099c": 5510,
  "\u2581\u09aa\u09af\u09bc\u0997\u09ae": 5511,
  "\u2581\u09b0\u0999": 5512,
  "List": 5513,
  "\u2581Sound": 5514,
  "\u2581pictures": 5515,
  "\u2581\u0995\u09ae\u09cd\u09aa\u09bf\u0989\u099f\u09be\u09b0\u09c7\u09b0": 5516,
  "\u2581\u09aa\u09b0\u09bf\u09a3\u09a4\u09bf": 5517,
  "\u2581\u09aa\u09cd\u09b0\u099a\u09a3\u09cd\u09a1": 5518,
  "\u2581looked": 5519,
  "\u2581views": 5520,
  "\u2581\u09ad\u09be\u0987\u09af\u09bc\u09c7\u09b0": 5521,
  "\u2581Later": 5522,
  "\u2581Remote": 5523,
  "\u2581border": 5524,
  "\u2581church": 5525,
  "\u2581\u0986\u09a6": 5526,
  "\u2581\u0995\u09b0\u09b2\u09cb": 5527,
  "\u2581\u09b6\u09be\u09a8": 5528,
  "\u2581abide": 5529,
  "\u2581bounty": 5530,
  "\u2581expects": 5531,
  "\u2581turning": 5532,
  "\u2581\u09b8\u09c7\u0997\u09c1\u09b2\u09cb\u0995\u09c7": 5533,
  "\u09ad\u09bf\u09a4\u09cd\u09a4\u09bf\u0995": 5534,
  "\u2581Judgment": 5535,
  "\u2581generations": 5536,
  "\u2581\u09a4\u09a4\u09bf": 5537,
  "\u2581\u09a4\u09bf\u09ae\u09be\u09a8": 5538,
  "\u2581\u09af\u09a4\u0995": 5539,
  "\u2581Faith": 5540,
  "\u2581fit": 5541,
  "\u2581foundation": 5542,
  "\u2581inform": 5543,
  "\u2581maybe": 5544,
  "\u2581\u099a\u09b2\u09be": 5545,
  "\u2581\u09a4\u09a6\u09c7\u09b0": 5546,
  "\u2581\u09b8\u09b0\u0995\u09be\u09b0\u09bf": 5547,
  "\u2581\u09b8\u09c7\u09a8\u09cd\u099f": 5548,
  "\u2581\u09b9\u09be\u09b2\u0995\u09be": 5549,
  "\u2581\u0985\u09a8\u09cd\u09af\u09be\u09af\u09bc": 5550,
  "\u2581\u09a4\u09a4": 5551,
  "\u2581\u09b8\u09cd\u0995\u09c0\u09ae\u09be": 5552,
  "\u2581Icon": 5553,
  "\u2581affect": 5554,
  "\u2581happens": 5555,
  "\u2581mouse": 5556,
  "\u2581worse": 5557,
  "\u2581\u098f\u0997\u09c1\u09b2\u09cb\u09b0": 5558,
  "\u2581\u09ac\u09bf\u09a6\u09cd\u09af\u09c1\u09ce": 5559,
  "No": 5560,
  "po": 5561,
  "\u2581Muslim": 5562,
  "\u2581produced": 5563,
  "\u2581Samuel": 5564,
  "\u2581wherein": 5565,
  "\u2581\u0985\u0982\u09b6\u09c7\u09b0": 5566,
  "\u2581Am": 5567,
  "\u2581Language": 5568,
  "\u2581Ministry": 5569,
  "\u2581repent": 5570,
  "\u2581\u098f\u0996\u09be\u09a8\u09c7\u0987": 5571,
  "\u2581\u099a\u09b2\u09ac\u09c7": 5572,
  "\u2581\u09a4\u09cb\u0995\u09c7": 5573,
  "\u09a6\u09be\u09b0": 5574,
  "\u09af\u09be": 5575,
  "\u2581bookmark": 5576,
  "\u2581wide": 5577,
  "\u2581\u0995\u09b0\u09cd\u09a4\u09c3\u09aa\u0995\u09cd\u09b7": 5578,
  "\u0995\u09b0\u09a3": 5579,
  "\u2581Despite": 5580,
  "\u2581agree": 5581,
  "\u2581easily": 5582,
  "\u2581sharing": 5583,
  "\u2581\u0985\u09a8\u09cd\u09af\u09a6\u09bf\u0995\u09c7": 5584,
  "\u2581\u0989\u09a6\u09cd\u09af\u09cb\u0997": 5585,
  "\u2581\u0996\u09c1\u0981\u099c\u09c1\u09a8": 5586,
  "\u2581\u0997\u09be\u099b": 5587,
  "\u2581\u09ab\u09c1\u099f\u09ac\u09b2": 5588,
  "\u2581Sun": 5589,
  "\u2581careful": 5590,
  "\u2581willed": 5591,
  "\u2581\u09ac\u09bf\u099c\u09af\u09bc\u09c0": 5592,
  "\u2581\u09b2\u09c7": 5593,
  "\u2581corrupt": 5594,
  "\u2581dwell": 5595,
  "\u2581\u0989\u099a": 5596,
  "\u2581\u099c\u09a8\u0997\u09a3\u09c7\u09b0": 5597,
  "\u2581\u09ac\u09be\u0987": 5598,
  "\u2581\u09b0\u09be\u0996\u09bf": 5599,
  "\u09bf\u09b8": 5600,
  "\u2581holding": 5601,
  "\u2581passwords": 5602,
  "\u2581starting": 5603,
  "\u2581\u099c\u09a8\u09cd\u09ae\u09a6\u09bf\u09a8": 5604,
  "\u2581\u09b8\u09aa\u09cd\u09a4\u09be\u09b9\u09c7\u09b0": 5605,
  "Mac": 5606,
  "\u258112.": 5607,
  "\u2581\u0989": 5608,
  "\u0987\u09a8\u09c7\u09b0": 5609,
  "\u2581Hi": 5610,
  "\u2581miles": 5611,
  "\u2581proof": 5612,
  "\u2581travel": 5613,
  "\u2581trials": 5614,
  "\u2581\u09a8\u09c0\u099a\u09c7\u09b0": 5615,
  "\u2581\u09aa\u09c1\u09b2\u09bf\u09b6\u09c7\u09b0": 5616,
  "\u2581\u09ae\u09cb\u0995\u09be\u09ac\u09bf\u09b2\u09be": 5617,
  "\u00ed": 5618,
  "\u09b6\u09c7": 5619,
  "\u2581Changes": 5620,
  "\u2581precious": 5621,
  "\u2581rules": 5622,
  "\u2581writable": 5623,
  "\u2581\u0998\u09a8": 5624,
  "\u2581\u09b0\u099a\u09a8\u09be": 5625,
  "\u2581\u09b0\u09c7\u09a1\u09bf\u0993": 5626,
  "\u2581\u09b2\u09c2\u09a4": 5627,
  "\u2581\u09b8\u099e\u09cd\u099a\u09be\u09b2\u09bf\u09a4": 5628,
  ".\u201d": 5629,
  "\u098f\u0995": 5630,
  "\u09a1\u09bc\u09be": 5631,
  "\u09a4\u09be\u09af\u09bc": 5632,
  "\u2581fuck": 5633,
  "\u2581guides": 5634,
  "\u2581\u0985\u09ac\u09bf\u09b6\u09cd\u09ac\u09be\u09b8": 5635,
  "\u2581\u0995\u0996\u09a8\u0987": 5636,
  "\u2581\u09ab\u09be\u0982\u09b6\u09a8": 5637,
  "\u2581\u09ac\u09bf\u09a4\u09b0": 5638,
  "\u2581\u09af\u09be\u09a6\u09c7\u09b6": 5639,
  "\u2581\u09b8\u09bf\u099c\u09a6\u09be": 5640,
  "only": 5641,
  "\u258113:": 5642,
  "\u2581Though": 5643,
  "\u2581anti": 5644,
  "\u2581connected": 5645,
  "\u2581offering": 5646,
  "\u2581\u0986\u09b6\u09cd\u09b0\u09af\u09bc": 5647,
  "\u2581\u0995\u09a5\u09be\u09af\u09bc": 5648,
  "\u2581\u09aa\u09be\u09a0\u09be\u09a8\u09cb\u09b0": 5649,
  "\u2581abode": 5650,
  "\u2581elements": 5651,
  "\u2581oil": 5652,
  "\u2581properly": 5653,
  "\u2581regularly": 5654,
  "\u2581sincere": 5655,
  "\u2581\u09ac\u09b0\u09c2\u09aa": 5656,
  "\u2581\u09ae\u09b0\u09c7": 5657,
  "\u09ae\u09cb": 5658,
  "\u09af\u09a6\u09bf": 5659,
  "\u258114.": 5660,
  "\u2581cursor": 5661,
  "\u2581\u0985\u099e\u09cd\u099a\u09b2\u09c7\u09b0": 5662,
  "\u2581\u0995\u09cd\u09b0\u09ae\u09be\u0997\u09a4": 5663,
  "\u2581\u0997\u09c7\u099b\u09bf": 5664,
  "\u2581\u099f\u09be\u09b0\u09cd\u09ae\u09bf\u09a8\u09cd\u09af\u09be\u09b2": 5665,
  "\u2581burden": 5666,
  "\u2581interface": 5667,
  "\u2581occasion": 5668,
  "\u2581servers": 5669,
  "\u2581\u098f\u09b8\u09c7\u099b\u09c7\u09a8": 5670,
  "\u2581\u09ac\u09b2\u09ac": 5671,
  "ma": 5672,
  "\u2581Weather": 5673,
  "\u2581male": 5674,
  "\u2581sites": 5675,
  "\u2581song": 5676,
  "\u2581stars": 5677,
  "\u2581\u09aa\u09cd\u09b0\u09b6\u09cd\u09a8\u09c7\u09b0": 5678,
  "\u2581\u09ac\u09bf\u09aa\u09a5\u09c7": 5679,
  "\u2581\u09b6\u09bf\u09b7\u09cd\u09af": 5680,
  "Jehovah": 5681,
  "da": 5682,
  "\u2581Arab": 5683,
  "\u2581Signs": 5684,
  "\u2581declared": 5685,
  "\u2581\u09b8\u09ae\u09cd\u09ac\u09a8\u09cd\u09a7\u09c0\u09af\u09bc": 5686,
  "\u2581Ad": 5687,
  "\u2581Maximum": 5688,
  "\u2581participants": 5689,
  "\u2581\u0986\u0997\u09cd\u09b0\u09b9": 5690,
  "\u2581\u099a\u09cd\u09af\u09be\u09a8\u09c7\u09b2": 5691,
  "\u2581\u09b6\u09bf\u0995": 5692,
  "nd": 5693,
  "\u2581Cyrillic": 5694,
  "\u2581\u0986\u09a6\u09b0\u09cd\u09b6": 5695,
  "\u25818,": 5696,
  "\u25819.": 5697,
  "\u2581backs": 5698,
  "\u2581disbelief": 5699,
  "\u2581hypocrites": 5700,
  "\u2581mailbox": 5701,
  "\u2581protesters": 5702,
  "\u2581sender": 5703,
  "\u2581\u0987\u09b8\u09cd\u09b0\u09be\u09af\u09bc\u09c7\u09b2\u09c7\u09b0": 5704,
  "\u2581\u0989\u09aa\u0995\u09c3\u09a4": 5705,
  "\u2581\u09a6\u09b2\u09c7": 5706,
  "\u2581\u09a6\u09be\u09af\u09bc\u09bf\u09a4": 5707,
  "ko": 5708,
  "\u2581Export": 5709,
  "\u2581admit": 5710,
  "\u2581kid": 5711,
  "\u2581\u0986\u0987\u09a8\u09c7\u09b0": 5712,
  "\u2581\u0986\u099b\u09cb": 5713,
  "\u2581Apostle": 5714,
  "\u2581appreciation": 5715,
  "\u2581fun": 5716,
  "\u2581trouble": 5717,
  "\u2581\u0986\u0997\u09c1\u09a8\u09c7": 5718,
  "\u2581\u0995\u09be\u09b0\u09cd\u09af\u0995\u09cd\u09b0\u09ae": 5719,
  "\u2581\u09aa\u09a5\u09c7\u09b0": 5720,
  "\u2581\u09ac\u09cd\u09b2\u0997\u09c7\u09b0": 5721,
  "\u2581\u09b8\u09c1\u0996": 5722,
  "\u2581\u09e9\u09eb": 5723,
  "\u2581defined": 5724,
  "\u2581\u0986\u0996\u09c7\u09b0\u09be\u09a4\u09c7": 5725,
  "\u2581\u0989\u0987\u099c\u09c7\u099f": 5726,
  "\u2581\u099c\u09cb\u09b0\u09be\u09b2\u09cb": 5727,
  "\u2581Licence": 5728,
  "\u2581\u0985\u0982\u09b6\u0997\u09cd\u09b0\u09b9\u09a3": 5729,
  "\u2581\u099f\u09c1": 5730,
  "\u2581\u09b8\u09bf\u09b0\u09bf\u09b2\u09bf\u0995": 5731,
  "File": 5732,
  "\u0995\u09c0": 5733,
  "\u2581Eve": 5734,
  "\u2581Red": 5735,
  "\u2581blogs": 5736,
  "\u2581development": 5737,
  "\u2581repentance": 5738,
  "\u2581\u0985\u09a4\u09cd\u09af\u09be\u09a7\u09bf\u0995": 5739,
  "\u2581\u0985\u09a6\u09c3\u09b6": 5740,
  "\u2581\u0989\u09a0\u09a4\u09c7": 5741,
  "\u2581\u099a\u09bf\u09a0\u09bf": 5742,
  "\u2581\u09a6\u09bf\u099a": 5743,
  "\u2581Among": 5744,
  "\u2581Nor": 5745,
  "\u2581elections": 5746,
  "\u2581wouldn": 5747,
  "\u2581\u0986\u09a1\u09cd\u09a1\u09be": 5748,
  "\u2581\u0986\u09ab\u09cd\u09b0\u09bf\u0995\u09be\u09b0": 5749,
  "\u2581\u098f\u099f\u09bf\u0987": 5750,
  "\u2581\u099f\u09c7\u09b2\u09bf\u09aa\u09cb\u09b0\u09cd\u099f": 5751,
  "\u2581\u09ac\u09bf\u09b6\u09cd\u09ac\u09ac\u09bf\u09a6\u09cd\u09af\u09be\u09b2\u09af\u09bc": 5752,
  "\u2581\u09ac\u09c3\u09b7": 5753,
  "\u2581\u09ae\u09c2\u09b8\u09be\u09b0": 5754,
  "\u2581\u09b6\u09c0\u0998": 5755,
  "\\@": 5756,
  "\u098f\u09ae": 5757,
  "\u2581Mohammed": 5758,
  "\u2581\u099c\u09be\u09b9\u09be\u099c": 5759,
  "\u2581\u09ac\u09be\u099c\u09c7": 5760,
  "\u2581\u09b7\u09bf\u09a4": 5761,
  "link": 5762,
  "\u2581printing": 5763,
  "\u2581\u0996\u09be\u09a6": 5764,
  "safe": 5765,
  "\u2581Configuration": 5766,
  "\u2581belief": 5767,
  "\u2581layout": 5768,
  "\u2581\u0989\u09a8\u09bf": 5769,
  "\u2581\u0989\u09b2\u09cd\u09b2\u09c7\u0996\u09cd\u09af": 5770,
  "\u2581\u09aa\u09c3\u09b7\u09cd\u09a0\u09be\u09af\u09bc": 5771,
  "\u2581\u09b8\u09a6\u09be\u09aa\u09cd\u09b0\u09ad\u09c1": 5772,
  "\":": 5773,
  "mon": 5774,
  "\u09b0\u09cb": 5775,
  "\u2581lands": 5776,
  "\u2581\u09a1\u09be\u0995\u09c7": 5777,
  "di": 5778,
  "\u2581Bethel": 5779,
  "\u2581Left": 5780,
  "\u2581Moreover": 5781,
  "\u2581directly": 5782,
  "\u2581forced": 5783,
  "\u2581lawful": 5784,
  "\u2581\u0995\u09ac\u09c1\u09b2": 5785,
  "\u2581\u099b\u09c1\u099f\u09bf": 5786,
  "\u2581\u09af\u09c7\u09ae\u09a8\u099f\u09be": 5787,
  "ted": 5788,
  "\u2581Draw": 5789,
  "\u2581journalist": 5790,
  "\u2581slaves": 5791,
  "\u2581whatsoever": 5792,
  "\u09c0\u09a6\u09c7\u09b0": 5793,
  "\u2581Folders": 5794,
  "\u2581announced": 5795,
  "\u2581helper": 5796,
  "\u2581queen": 5797,
  "\u2581\u099a\u09be\u0995\u09b0\u09bf": 5798,
  "\u2581\u09a1\u09be\u0995\u09cd\u09a4\u09be\u09b0": 5799,
  "\u2581\u09a8\u09a5\u09bf\u09aa\u09a4\u09cd\u09b0": 5800,
  "ating": 5801,
  "with": 5802,
  "\u2581Details": 5803,
  "\u2581Jeremiah": 5804,
  "\u2581index": 5805,
  "\u2581wanna": 5806,
  "ex": 5807,
  "\u2581Load": 5808,
  "\u2581admonition": 5809,
  "\u2581exercise": 5810,
  "\u2581imagine": 5811,
  "\u2581shell": 5812,
  "\u2581\u0987\u09ab\u09bf\u09b7\u09c0\u09af\u09bc": 5813,
  "ya": 5814,
  "\u2581Soon": 5815,
  "\u2581Toolbar": 5816,
  "\u2581losers": 5817,
  "\u2581\u09aa\u09be\u09aa\u09c7\u09b0": 5818,
[...]
